s	-3.27326
else	-4.41983
and	-4.85526
False	-4.88682
ed	-5.08328
d	-5.11069
is	-5.1606
y	-5.22446
the	-5.25655
pass	-5.3233
instance	-5.44897
params	-5.62272
values	-5.67928
ing	-5.70975
class	-5.72662
S	-5.73048
n	-5.77147
r	-5.80711
e	-5.88876
items	-6.00002
keys	-6.04222
p	-6.06742
m	-6.12442
status	-6.15897
c	-6.16347
t	-6.19073
names	-6.19567
options	-6.29094
axis	-6.29094
i	-6.29333
f	-6.36124
x	-6.3759
files	-6.38649
a	-6.40032
es	-6.40233
g	-6.41925
l	-6.45077
headers	-6.46437
P	-6.5075
lines	-6.51503
copy	-6.56723
numpy	-6.59431
fields	-6.59592
results	-6.60489
b	-6.62381
v	-6.63267
py	-6.65973
types	-6.66016
@	-6.66367
process	-6.66598
lib	-6.66799
columns	-6.66928
D	-6.67561
ids	-6.68471
E	-6.70825
logging	-6.71582
opts	-6.71744
utils	-6.72194
h	-6.73587
er	-6.75093
body	-6.78749
un	-6.80309
C	-6.80912
settings	-6.84528
list	-6.86613
sorted	-6.86627
bytes	-6.87067
enumerate	-6.88901
ies	-6.90824
labels	-6.91374
data	-6.92643
A	-6.93049
nodes	-6.94705
The	-6.95108
B	-6.96626
M	-6.97983
file	-6.99898
in	-7.03316
objects	-7.03597
dict	-7.04229
parameters	-7.04643
this	-7.04666
exists	-7.06043
startswith	-7.06165
rows	-7.07644
z	-7.08852
matrix	-7.09364
L	-7.1023
errors	-7.10258
models	-7.10322
full	-7.10971
id	-7.12188
re	-7.13293
stats	-7.14758
F	-7.15162
url	-7.15239
u	-7.17257
points	-7.17444
w	-7.17796
time	-7.19612
ET	-7.21256
now	-7.21824
al	-7.21929
o	-7.22057
tags	-7.23089
Error	-7.23136
indices	-7.23471
G	-7.23507
k	-7.2445
T	-7.24582
able	-7.2528
q	-7.25738
zeros	-7.26452
Not	-7.27107
N	-7.27844
verbose	-7.29318
groups	-7.30437
paths	-7.30738
R	-7.30792
or	-7.30797
attrs	-7.31526
H	-7.31931
parts	-7.33113
directory	-7.33466
Q	-7.34104
IO	-7.34411
to	-7.35123
ion	-7.35639
To	-7.35823
get	-7.36363
cols	-7.36445
subprocess	-7.38064
size	-7.38644
name	-7.39106
vals	-7.4129
out	-7.42136
sub	-7.43022
st	-7.45037
max	-7.47427
ly	-7.47625
requests	-7.47656
new	-7.47955
tokens	-7.48117
Y	-7.4826
features	-7.48578
six	-7.49041
axes	-7.49503
plot	-7.49723
flags	-7.49895
K	-7.49922
samples	-7.49996
j	-7.52935
apply	-7.53003
will	-7.53727
type	-7.53869
weights	-7.54933
I	-7.55104
box	-7.55116
V	-7.55187
access	-7.55849
ctypes	-7.60384
propertie	-7.60478
children	-7.60707
attribute	-7.63706
vars	-7.64204
X	-7.65419
path	-7.66245
variable	-7.66789
coords	-7.67173
seconds	-7.67235
ext	-7.67425
parsed	-7.67817
Class	-7.68228
counts	-7.71206
str	-7.71487
dumps	-7.7165
words	-7.71652
inputs	-7.71893
dir	-7.72276
policy	-7.74699
log	-7.74705
edges	-7.74756
methods	-7.75923
units	-7.76045
Qt	-7.76928
required	-7.77812
Return	-7.78037
property	-7.78094
colors	-7.78864
matches	-7.79467
min	-7.79752
LOG	-7.79765
W	-7.82882
open	-7.83086
info	-7.83261
alias	-7.83808
astype	-7.84037
it	-7.84458
events	-7.84625
no	-7.84732
argument	-7.84998
layers	-7.85076
contents	-7.8539
cos	-7.85417
set	-7.86472
elements	-7.87042
endswith	-7.873
filters	-7.87343
my	-7.87428
ity	-7.87725
times	-7.87955
safe	-7.88479
dims	-7.88591
fetch	-7.88917
loads	-7.89213
exceptions	-7.89334
ers	-7.89526
summary	-7.89701
defaults	-7.90321
TYPE	-7.90387
key	-7.90793
which	-7.90929
DEFAULT	-7.91457
states	-7.91974
warnings	-7.924
My	-7.93282
db	-7.93711
itertool	-7.94719
ic	-7.95849
modules	-7.96384
after	-7.96472
loss	-7.96815
classes	-7.96942
category	-7.97738
Thi	-7.97782
as	-7.98342
sin	-7.99794
verify	-8.00004
le	-8.0024
num	-8.01148
steps	-8.01739
fig	-8.04463
est	-8.05507
text	-8.06509
io	-8.07626
O	-8.07631
ar	-8.07993
mesh	-8.08154
collection	-8.08317
Invalid	-8.08971
success	-8.09129
Py	-8.09199
days	-8.09716
on	-8.09807
map	-8.09857
HTTP	-8.10179
CLI	-8.10703
matplotlib	-8.11416
LOGGER	-8.11555
memory	-8.11716
ED	-8.11809
ip	-8.11828
images	-8.11838
actions	-8.11903
im	-8.12331
messages	-8.12435
binary	-8.1249
string	-8.12834
metrics	-8.12964
ation	-8.13907
channels	-8.15157
resources	-8.1536
cl	-8.15398
history	-8.15493
pandas	-8.1564
bounds	-8.15852
analysis	-8.15871
detail	-8.15985
line	-8.16001
OS	-8.16024
Parameter	-8.16554
dirs	-8.16629
records	-8.16767
components	-8.16837
dictionary	-8.16941
bash	-8.17737
ones	-8.18146
obj	-8.18477
U	-8.1863
len	-8.18639
en	-8.18999
existing	-8.19572
targets	-8.19651
Meta	-8.1996
radius	-8.20661
hash	-8.20803
PIPE	-8.20934
scores	-8.21025
entrie	-8.21289
outputs	-8.21829
net	-8.21869
progress	-8.21928
factory	-8.22439
trans	-8.22622
iteritem	-8.23033
django	-8.23073
flush	-8.23316
stdin	-8.2343
added	-8.25015
web	-8.25127
wx	-8.25509
commands	-8.25849
links	-8.26545
de	-8.2664
previous	-8.26671
user	-8.26898
Order	-8.271
default	-8.27136
Process	-8.2716
selected	-8.27904
By	-8.28545
from	-8.28902
sources	-8.29102
tasks	-8.29146
ang	-8.29376
registry	-8.29854
some	-8.30062
NAME	-8.30213
etree	-8.30291
reply	-8.30338
split	-8.30348
findall	-8.30361
hparam	-8.30364
SI	-8.30378
ab	-8.30656
created	-8.30703
Fro	-8.30822
pairs	-8.31271
blocks	-8.31361
co	-8.31399
Optional	-8.3255
returns	-8.32742
win	-8.32937
changed	-8.33625
isfile	-8.34169
Found	-8.35105
ize	-8.36339
el	-8.36569
specifie	-8.37373
strings	-8.37595
git	-8.37885
nx	-8.37977
ssl	-8.38613
enable	-8.39602
Serie	-8.39698
refresh	-8.39847
ui	-8.40065
auto	-8.40114
rules	-8.40559
packages	-8.40581
changes	-8.40642
link	-8.41483
filename	-8.4157
digit	-8.4163
pos	-8.41731
mod	-8.41908
ors	-8.41941
functions	-8.42032
code	-8.42066
credential	-8.4223
handler	-8.4241
int	-8.4245
extension	-8.42468
version	-8.4256
tables	-8.42988
index	-8.43127
indexes	-8.43337
test	-8.43493
ions	-8.43587
frames	-8.43759
dates	-8.4382
tree	-8.44091
users	-8.44161
end	-8.44512
df	-8.44753
pars	-8.44967
codes	-8.45307
ops	-8.45404
cli	-8.45598
ha	-8.45682
os	-8.45861
primary	-8.4597
sns	-8.46002
cached	-8.46178
security	-8.46499
encoded	-8.46566
all	-8.4664
asarray	-8.46661
at	-8.46918
ssh	-8.47091
nan	-8.47245
wise	-8.47281
KEY	-8.47584
ent	-8.47795
grid	-8.48326
when	-8.48651
Un	-8.48706
tr	-8.48746
jobs	-8.49016
chunks	-8.49121
locals	-8.49597
array	-8.50301
Query	-8.50699
choices	-8.5091
api	-8.50946
nplace	-8.50981
val	-8.51276
rftime	-8.51393
canvas	-8.51504
position	-8.51505
ING	-8.51506
rstrip	-8.51629
flux	-8.51689
start	-8.52283
date	-8.52359
iter	-8.52476
us	-8.52709
ref	-8.52743
chars	-8.52782
identity	-8.52994
sparse	-8.53117
pre	-8.53295
isdir	-8.53702
et	-8.54101
fix	-8.54116
seen	-8.54487
updated	-8.54619
numbers	-8.54967
constants	-8.55005
gen	-8.55118
using	-8.5546
Implement	-8.55598
urls	-8.55866
DEBUG	-8.5669
ations	-8.57327
argparse	-8.57399
Arg	-8.58077
base	-8.58098
Status	-8.58238
DB	-8.58262
members	-8.5845
learn	-8.58582
up	-8.58976
arg	-8.59067
rm	-8.59077
ascii	-8.59448
subplots	-8.6031
ind	-8.60379
ness	-8.60674
family	-8.60864
Box	-8.60956
tools	-8.61134
repositor	-8.61352
MAX	-8.61393
Params	-8.61468
levels	-8.61734
recursive	-8.61755
terms	-8.61896
stack	-8.61902
col	-8.61922
bin	-8.62072
config	-8.62139
publish	-8.62363
bus	-8.62979
failed	-8.63108
filtered	-8.63182
linspace	-8.63213
rec	-8.63281
color	-8.63422
keywords	-8.63884
if	-8.63952
an	-8.64167
same	-8.64612
push	-8.64661
globals	-8.64883
Re	-8.65483
hosts	-8.65547
country	-8.65554
of	-8.65603
block	-8.65676
off	-8.65872
linal	-8.66054
services	-8.66076
ra	-8.66864
segments	-8.66955
All	-8.67203
sets	-8.67376
cwd	-8.67774
check	-8.68058
decode	-8.68137
device	-8.68164
fixed	-8.68263
sizes	-8.68506
op	-8.68599
cross	-8.68744
var	-8.6884
ERROR	-8.68907
ify	-8.69013
PATH	-8.69127
bias	-8.69169
contains	-8.694
docs	-8.69818
ct	-8.69851
oup	-8.70221
lc	-8.70348
rs	-8.70586
ro	-8.70652
count	-8.70759
search	-8.70995
modified	-8.7107
null	-8.71129
mag	-8.71212
urlopen	-8.71223
logical	-8.71311
deepcop	-8.71425
Validat	-8.71484
frame	-8.716
IN	-8.71703
one	-8.71789
idx	-8.71846
DATA	-8.71976
args	-8.72104
geometry	-8.72116
supported	-8.72241
loop	-8.72378
wrapped	-8.7243
ports	-8.72609
neighbor	-8.72855
configs	-8.72937
ch	-8.7309
nt	-8.73176
switch	-8.73273
back	-8.73567
pts	-8.73611
filter	-8.73712
ur	-8.73769
temp	-8.74004
sig	-8.7469
library	-8.74748
recv	-8.74966
thread	-8.75174
minimum	-8.75337
sk	-8.754
ex	-8.75506
ER	-8.75617
Any	-8.7579
il	-8.76088
res	-8.76355
threads	-8.76943
pages	-8.77182
na	-8.77225
cells	-8.77256
mask	-8.77275
symbols	-8.77605
functool	-8.77625
categorie	-8.77747
bar	-8.77767
eautiful	-8.77882
func	-8.78081
refs	-8.78127
versions	-8.79322
lengths	-8.79337
merged	-8.79516
pretty	-8.79598
dependenc	-8.79607
FILE	-8.79658
ap	-8.79811
am	-8.79976
subclass	-8.79979
vertice	-8.80008
forms	-8.80046
patterns	-8.80059
limits	-8.80181
nested	-8.80227
dist	-8.80974
visibl	-8.8101
sites	-8.81109
shared	-8.8114
json	-8.81191
imshow	-8.81417
comments	-8.81565
env	-8.81577
eps	-8.81616
AL	-8.81643
have	-8.82028
Salt	-8.82196
strict	-8.82392
sections	-8.82512
ranges	-8.82625
vertex	-8.82738
PY	-8.82963
inds	-8.83349
reversed	-8.83396
ance	-8.83521
more	-8.83667
row	-8.84258
Gui	-8.84262
add	-8.84303
roles	-8.84418
install	-8.84472
strp	-8.85281
plugin	-8.85372
dimension	-8.85563
boto	-8.85696
range	-8.85998
mat	-8.86011
klass	-8.86115
multi	-8.8614
do	-8.86273
makedirs	-8.86353
lists	-8.86564
Entry	-8.86705
GET	-8.87322
fn	-8.87368
INFO	-8.87629
most	-8.87917
splitline	-8.88004
css	-8.88378
um	-8.88397
virtual	-8.88462
tz	-8.88487
parents	-8.88813
go	-8.88828
ts	-8.88918
group	-8.88981
doc	-8.89219
cr	-8.89401
clusters	-8.89723
th	-8.89737
hex	-8.89935
timestamp	-8.90041
err	-8.90156
redis	-8.90292
ax	-8.90295
many	-8.90374
xml	-8.90763
print	-8.90766
ravel	-8.9078
te	-8.90993
matched	-8.91046
ter	-8.91176
expand	-8.91179
center	-8.91289
DIR	-8.91299
asyncio	-8.9133
torch	-8.91883
hours	-8.9215
read	-8.92158
node	-8.92185
Value	-8.92543
ins	-8.92686
arrays	-8.92782
sequences	-8.92792
fill	-8.92889
between	-8.93052
until	-8.93052
store	-8.93107
spec	-8.93107
absolute	-8.93171
closed	-8.9328
app	-8.93433
genes	-8.93575
minute	-8.93607
complex	-8.9361
Address	-8.93635
ans	-8.93697
less	-8.93951
pe	-8.94422
transform	-8.94572
coordinate	-8.94612
ALL	-8.95406
google	-8.95408
big	-8.95736
utc	-8.9581
basestr	-8.95836
saved	-8.95847
non	-8.95903
docker	-8.96628
ST	-8.96695
annotations	-8.96713
With	-8.96751
NS	-8.96784
po	-8.97052
ir	-8.97117
fs	-8.97118
space	-8.97339
over	-8.97422
model	-8.97664
connections	-8.97764
IS	-8.97932
constraint	-8.97982
you	-8.97983
removed	-8.97994
urlparse	-8.98001
son	-8.98115
chain	-8.98144
mav	-8.98307
normalized	-8.9869
write	-8.98717
pprint	-8.98785
pair	-8.98882
format	-8.99074
Multi	-8.99166
locations	-8.99251
pr	-8.99323
wraps	-8.99752
processed	-8.99781
was	-8.9986
working	-8.9995
Match	-9.00001
inter	-9.00018
ticks	-9.00057
guess	-9.00083
par	-9.00092
me	-9.00266
cur	-9.00295
retrie	-9.00542
Python	-9.0059
how	-9.00719
offsets	-9.00734
defined	-9.00796
In	-9.00849
cmd	-9.01173
NO	-9.01328
notify	-9.01379
run	-9.01394
conf	-9.01532
diff	-9.01763
arr	-9.01804
per	-9.01809
reg	-9.01879
error	-9.02009
provid	-9.02082
Property	-9.02159
candidate	-9.02189
fast	-9.02312
byre	-9.02318
plus	-9.02421
intervals	-9.02597
ce	-9.02923
main	-9.03009
ical	-9.03216
definition	-9.0331
pylab	-9.03418
returned	-9.03492
man	-9.03632
deps	-9.03835
AR	-9.03889
seq	-9.04209
dns	-9.04367
table	-9.04529
tokenize	-9.04906
OR	-9.05289
level	-9.05415
ive	-9.05423
cy	-9.0551
gr	-9.05528
nargs	-9.05593
VERSION	-9.05921
graph	-9.06159
input	-9.06174
attr	-9.06358
ID	-9.06841
xaxis	-9.06952
view	-9.07037
reads	-9.07082
deleted	-9.07189
entiti	-9.07384
Or	-9.07404
specs	-9.07515
TIME	-9.07594
def	-9.07675
CONFIG	-9.07782
np	-9.07834
bit	-9.08094
github	-9.08118
join	-9.08184
dry	-9.0819
sess	-9.08287
observ	-9.08298
Search	-9.08378
addresse	-9.08498
species	-9.08588
cores	-9.08635
response	-9.08839
TO	-9.08966
desired	-9.09173
density	-9.0922
objs	-9.09268
workers	-9.09322
callbacks	-9.09442
Bytes	-9.09531
sum	-9.09545
raw	-9.09556
label	-9.09565
lo	-9.09726
port	-9.09955
finished	-9.10282
formatted	-9.10284
Names	-9.10374
state	-9.10398
fromstring	-9.10584
rel	-9.10807
image	-9.10964
ready	-9.11179
value	-9.11207
xtick	-9.11548
IP	-9.11565
ips	-9.11603
energy	-9.11636
cleaned	-9.11691
readline	-9.11702
masked	-9.11864
formats	-9.12
permissions	-9.12153
java	-9.12242
namespace	-9.12387
calls	-9.12401
Exit	-9.12512
tag	-9.12536
cp	-9.12589
RE	-9.12684
since	-9.1274
communicate	-9.12812
grouped	-9.13157
topolog	-9.1362
save	-9.13771
requirements	-9.13863
fit	-9.13898
quiet	-9.13913
bases	-9.14034
img	-9.14107
fileobj	-9.14355
FLAG	-9.14399
txt	-9.14601
object	-9.14626
register	-9.14679
em	-9.14698
sql	-9.14805
ri	-9.14817
conditions	-9.1489
tuples	-9.15144
datasets	-9.15261
FORMAT	-9.15281
accept	-9.15381
import	-9.15392
general	-9.15481
verbos	-9.15599
signed	-9.15748
pl	-9.15773
last	-9.15818
fmt	-9.15859
pi	-9.15904
OK	-9.15984
vtk	-9.16082
means	-9.16327
funcs	-9.16331
Bad	-9.16459
periods	-9.16469
load	-9.16538
lstrip	-9.16727
maps	-9.16729
Auth	-9.16922
maybe	-9.17033
ck	-9.17093
Is	-9.17102
meta	-9.17148
post	-9.17542
predictions	-9.17576
Max	-9.17582
ul	-9.17608
comps	-9.17636
con	-9.17675
ut	-9.17764
references	-9.17976
activity	-9.18081
kwd	-9.18376
passed	-9.18462
nums	-9.18623
cc	-9.1874
your	-9.1885
NOT	-9.19168
updates	-9.19171
char	-9.19485
cookies	-9.19584
oauth	-9.19765
shape	-9.19837
ments	-9.1993
randn	-9.19979
old	-9.20172
templates	-9.20182
vectors	-9.2042
const	-9.20615
compat	-9.20669
geo	-9.20804
age	-9.20901
interface	-9.21004
UN	-9.21046
abort	-9.21224
END	-9.2126
watch	-9.21275
SON	-9.21306
typ	-9.21442
shutit	-9.21537
lab	-9.21695
ma	-9.21745
ceil	-9.21768
operation	-9.21835
ether	-9.22061
coeffs	-9.22226
ON	-9.22242
buf	-9.22275
dispatch	-9.22277
basis	-9.22294
Results	-9.22381
https	-9.22431
multiprocess	-9.22511
LINE	-9.22578
http	-9.22582
ant	-9.22585
tab	-9.2286
mp	-9.22868
ptr	-9.22994
bi	-9.23225
distance	-9.2336
ret	-9.23364
width	-9.23582
by	-9.23703
pack	-9.23782
probs	-9.23987
util	-9.2406
param	-9.24084
Iter	-9.24141
ow	-9.24289
pad	-9.24296
than	-9.24504
preds	-9.24553
logs	-9.24581
client	-9.24615
containing	-9.24923
be	-9.25124
pixels	-9.25161
insum	-9.25192
Example	-9.2528
pygame	-9.25298
slices	-9.25532
cumsum	-9.2572
degree	-9.25722
resolved	-9.25733
finite	-9.25853
And	-9.25853
iteration	-9.26033
getcwd	-9.2605
norm	-9.26075
mapped	-9.26119
may	-9.26131
mags	-9.26244
exp	-9.26399
grains	-9.26491
Matrix	-9.26541
boundary	-9.26616
ix	-9.26682
dists	-9.26723
perms	-9.26744
windows	-9.26776
cat	-9.26777
fe	-9.26838
seqs	-9.26864
kera	-9.27114
hits	-9.27205
Option	-9.27261
ative	-9.27339
something	-9.27378
deep	-9.27612
preprocess	-9.27669
la	-9.27671
regions	-9.27916
notes	-9.28278
helper	-9.28453
duplicate	-9.28604
views	-9.28915
widget	-9.28943
bl	-9.29119
meas	-9.29255
sh	-9.29459
also	-9.29566
ol	-9.29575
other	-9.29625
Web	-9.29633
XML	-9.29679
checks	-9.29703
patche	-9.29743
ES	-9.29817
shapes	-9.29828
encrypted	-9.29877
HEADER	-9.29882
gzip	-9.29939
Factor	-9.29955
SSL	-9.30043
savefi	-9.30105
AF	-9.30214
di	-9.30222
dicts	-9.30641
hard	-9.30751
strateg	-9.30767
capacit	-9.30827
dot	-9.30865
Name	-9.30903
scope	-9.31072
buffer	-9.31246
ad	-9.31268
point	-9.31278
yaxis	-9.31279
corpus	-9.31359
ignored	-9.31389
sort	-9.31626
ti	-9.31743
src	-9.31922
qubit	-9.31978
shutdown	-9.32158
IC	-9.32229
local	-9.32275
scaled	-9.32275
radian	-9.32385
combined	-9.32471
pt	-9.32754
tmp	-9.32849
flask	-9.32895
needs	-9.32921
comp	-9.33017
vm	-9.3302
Access	-9.33037
infer	-9.33106
idxs	-9.33232
server	-9.33306
learning	-9.33384
Per	-9.33426
ROOT	-9.33452
parse	-9.33524
convert	-9.33616
ator	-9.33732
SQL	-9.33843
Keys	-9.34008
ep	-9.34156
MAP	-9.34393
squeeze	-9.34401
splits	-9.34528
probabilit	-9.34631
quit	-9.34743
nd	-9.34978
rhs	-9.35038
requested	-9.35247
examples	-9.35261
obs	-9.35278
field	-9.35381
hexdig	-9.35459
msg	-9.35538
rotate	-9.35729
ca	-9.35957
Foreig	-9.36019
li	-9.36026
mo	-9.36143
cx	-9.3618
sudo	-9.36215
codecs	-9.36225
ate	-9.36234
dx	-9.3634
left	-9.36345
YANG	-9.36573
dependency	-9.36731
ware	-9.36745
logit	-9.36745
pa	-9.36865
div	-9.36921
quality	-9.36982
fits	-9.37022
servers	-9.37029
partitions	-9.37055
rd	-9.37057
gca	-9.37188
current	-9.37243
pm	-9.37324
attach	-9.37519
result	-9.37598
ac	-9.37674
aliase	-9.37756
ary	-9.37771
phi	-9.37849
pkg	-9.37935
tls	-9.38103
TYPES	-9.38149
completed	-9.38597
prefixe	-9.38816
ian	-9.39101
use	-9.39196
focus	-9.39294
Enable	-9.39297
apps	-9.39369
ffi	-9.39468
signals	-9.39487
Syntax	-9.39546
already	-9.39609
annotate	-9.39634
rt	-9.39666
defin	-9.39851
topic	-9.40146
secure	-9.40305
document	-9.40428
scale	-9.4046
estimat	-9.40491
ither	-9.40494
xy	-9.40557
ne	-9.40562
ci	-9.40598
ver	-9.40621
needed	-9.40686
dk	-9.40705
VALUE	-9.40745
epoch	-9.40745
mode	-9.40802
SET	-9.40912
USER	-9.40957
init	-9.41097
cache	-9.41133
its	-9.4128
ee	-9.4129
chdir	-9.41298
serialize	-9.41416
ECT	-9.41525
hi	-9.41616
not	-9.41796
argsort	-9.41878
gl	-9.4196
extended	-9.41962
filln	-9.42107
container	-9.42301
within	-9.42388
combination	-9.42422
flow	-9.42444
tostring	-9.42585
dec	-9.42668
rsplit	-9.42819
mem	-9.43372
mediat	-9.43435
letters	-9.43447
accurac	-9.43452
stored	-9.43476
urlencode	-9.43535
STATE	-9.43604
calculat	-9.43714
cycle	-9.43722
dfs	-9.4373
without	-9.43737
sec	-9.43748
top	-9.44105
EX	-9.4411
ld	-9.44195
zip	-9.44198
pp	-9.4424
tk	-9.44442
longest	-9.44464
tax	-9.44605
hstack	-9.44612
SP	-9.44613
match	-9.44708
nce	-9.44796
widths	-9.4489
call	-9.45172
om	-9.45231
silent	-9.45234
dev	-9.45245
root	-9.45346
mylist	-9.45356
eyboard	-9.45474
ob	-9.46126
streams	-9.46245
wh	-9.46249
runs	-9.46386
network	-9.46487
ATION	-9.46494
vstack	-9.46612
br	-9.46746
subparser	-9.46913
sys	-9.4729
tt	-9.47374
piece	-9.47457
proc	-9.475
Types	-9.47543
markers	-9.47612
pop	-9.47691
queries	-9.4783
sentence	-9.47861
track	-9.47865
Activ	-9.47968
director	-9.48008
based	-9.48075
query	-9.4856
hierarch	-9.48684
hooks	-9.48791
embedd	-9.48961
skip	-9.4901
ally	-9.49036
API	-9.49171
factors	-9.49305
let	-9.49325
dt	-9.49514
expanded	-9.49594
Simple	-9.49722
visit	-9.49769
configure	-9.49837
dl	-9.49876
sessions	-9.49915
com	-9.50063
decrypt	-9.5016
branche	-9.50165
orm	-9.50263
statistic	-9.5035
always	-9.50369
attempt	-9.5042
STATUS	-9.50491
offset	-9.50528
draw	-9.5062
form	-9.5062
parser	-9.50921
ia	-9.50949
slots	-9.51183
uc	-9.51186
just	-9.51203
statement	-9.51242
dtypes	-9.51403
bencode	-9.51416
Pa	-9.51698
Res	-9.51703
BASE	-9.51886
tool	-9.51943
MODE	-9.51952
length	-9.52005
cap	-9.52043
rho	-9.52091
expect	-9.52114
subs	-9.52152
FIELD	-9.52226
stuff	-9.5226
Does	-9.52402
mappings	-9.52409
Dyn	-9.52475
routes	-9.5261
variants	-9.52629
Director	-9.52752
requires	-9.52902
poly	-9.52953
shift	-9.53007
Request	-9.53045
gm	-9.53053
month	-9.53071
lat	-9.53132
quantity	-9.53467
ph	-9.53609
ve	-9.53666
kws	-9.53712
elem	-9.53765
word	-9.53768
currency	-9.53911
dense	-9.53982
spaces	-9.53991
ba	-9.54129
kwarg	-9.54189
stmt	-9.54314
vertical	-9.54351
Auto	-9.54356
Check	-9.54422
cf	-9.54426
defs	-9.54436
weighted	-9.54442
predicted	-9.54496
utype	-9.54574
angles	-9.54643
mpty	-9.54681
expire	-9.54745
ny	-9.5482
act	-9.54836
Call	-9.5484
Polic	-9.5487
started	-9.54874
bisect	-9.54883
Prox	-9.54908
ascend	-9.55087
SH	-9.55092
hell	-9.55112
creds	-9.55225
compressed	-9.55241
authorize	-9.55538
ends	-9.55547
Fail	-9.55669
vec	-9.5579
yticks	-9.55827
next	-9.55854
av	-9.55897
handles	-9.55963
extras	-9.55982
pkgs	-9.55984
jinja	-9.56038
cast	-9.56076
ib	-9.56165
Onl	-9.56328
tornado	-9.56335
Raw	-9.56519
mt	-9.56561
Element	-9.56644
auth	-9.56764
does	-9.56788
Cell	-9.56805
opt	-9.56826
gas	-9.56858
tf	-9.56915
qu	-9.56968
volumes	-9.56993
prop	-9.57053
build	-9.57093
hashe	-9.57131
Interrupt	-9.57306
title	-9.57391
ltk	-9.57441
Tag	-9.57479
cb	-9.5751
fd	-9.57571
measure	-9.57695
account	-9.57719
ach	-9.578
CLASS	-9.57833
pitch	-9.57909
mean	-9.57939
md	-9.5794
pid	-9.5799
batche	-9.58123
loc	-9.58164
lhs	-9.58178
generated	-9.58234
See	-9.58422
At	-9.58596
utf	-9.58672
endpoints	-9.58681
sci	-9.58705
OB	-9.58709
cut	-9.58823
script	-9.58883
encryption	-9.58906
raise	-9.58907
return	-9.58913
tuple	-9.58951
initialized	-9.58979
rad	-9.5901
spark	-9.59319
alive	-9.59336
roots	-9.59348
ncols	-9.59359
render	-9.59538
etc	-9.59588
scaling	-9.59609
Change	-9.59626
Point	-9.59912
rate	-9.59921
iso	-9.60095
HTML	-9.60186
De	-9.603
cmds	-9.60372
order	-9.60486
Tk	-9.60585
corr	-9.60614
function	-9.60635
modify	-9.60642
capabilit	-9.60837
ot	-9.60843
lens	-9.60906
micro	-9.60983
ag	-9.61192
PREFIX	-9.61209
errs	-9.61248
rc	-9.61356
pf	-9.61439
cov	-9.61494
Exception	-9.61533
del	-9.61573
CA	-9.61637
launch	-9.61682
fetchall	-9.61719
addr	-9.61768
gtk	-9.6181
mouse	-9.6187
isin	-9.62147
Sub	-9.62238
stream	-9.62284
Client	-9.62327
INET	-9.62336
tx	-9.62352
down	-9.62407
train	-9.62449
through	-9.62471
show	-9.62474
proxie	-9.62549
MIN	-9.627
Main	-9.62705
dropna	-9.62716
closest	-9.62734
freqs	-9.62756
lxml	-9.62778
frequenc	-9.6294
nm	-9.62963
Min	-9.63051
pix	-9.63074
peaks	-9.63088
AT	-9.63152
bindings	-9.63186
xmln	-9.63246
aml	-9.6335
find	-9.63361
every	-9.6342
COLOR	-9.63499
projects	-9.63506
ud	-9.63569
context	-9.63575
header	-9.63743
arc	-9.63853
Rec	-9.64011
ml	-9.64013
above	-9.64058
LE	-9.64059
frozenset	-9.64077
core	-9.64279
subscribe	-9.64299
mark	-9.64544
physical	-9.64574
pan	-9.646
WORD	-9.64681
AS	-9.64708
right	-9.64736
NULL	-9.64945
tests	-9.64974
Next	-9.64989
PRO	-9.64994
serializer	-9.65057
consum	-9.65155
Node	-9.65185
ll	-9.65206
parent	-9.65248
style	-9.65271
tri	-9.65348
tries	-9.65465
tor	-9.65504
page	-9.65574
long	-9.65725
Object	-9.65759
locs	-9.65821
Item	-9.65901
complete	-9.65935
secondary	-9.66087
padded	-9.66117
ng	-9.66167
starts	-9.6623
ka	-9.6644
fnmatch	-9.66461
item	-9.6655
Con	-9.66636
ge	-9.66692
faces	-9.66706
Custom	-9.66743
mu	-9.66774
pro	-9.66855
spatial	-9.66879
CACHE	-9.66991
modes	-9.67043
domains	-9.671
font	-9.67105
sqlite	-9.67167
rank	-9.67336
lm	-9.67347
eq	-9.67353
ldap	-9.67366
recurse	-9.67389
Flag	-9.67459
low	-9.67489
ase	-9.67541
islice	-9.67629
msgs	-9.67761
written	-9.67823
tar	-9.68108
timeseries	-9.6811
AD	-9.68218
vim	-9.68328
strides	-9.6835
CS	-9.68442
locked	-9.68513
polic	-9.6853
PORT	-9.68582
Window	-9.68743
issue	-9.68752
enums	-9.68804
sync	-9.68908
hdr	-9.68914
lazy	-9.68916
inv	-9.68924
minion	-9.69104
DI	-9.69173
Id	-9.69221
META	-9.69351
VM	-9.69402
fr	-9.69402
weld	-9.69426
entropy	-9.69503
desc	-9.6953
day	-9.69974
Batch	-9.70183
bo	-9.70197
cfg	-9.70257
runa	-9.70257
ting	-9.70332
overrides	-9.70338
cases	-9.70382
void	-9.70444
theta	-9.70846
diffs	-9.7087
wait	-9.70872
symp	-9.70907
event	-9.70972
Pro	-9.71075
CODE	-9.71173
amp	-9.71175
LIST	-9.7131
he	-9.71318
cloud	-9.71337
unused	-9.71389
READ	-9.71481
starting	-9.71482
Co	-9.71487
once	-9.71718
pc	-9.71741
bu	-9.71795
finalize	-9.71867
SUB	-9.71953
US	-9.72105
problems	-9.72125
disabled	-9.72223
tu	-9.72496
ff	-9.72523
MA	-9.72541
lu	-9.7261
sim	-9.72615
mysql	-9.72674
edit	-9.72871
reduced	-9.72926
closing	-9.72941
TEXT	-9.72978
heads	-9.73
BLOCK	-9.73004
inventor	-9.73077
exclud	-9.73098
star	-9.73272
buckets	-9.73304
ak	-9.73357
START	-9.73397
catch	-9.73423
gt	-9.73566
bands	-9.73588
DF	-9.73622
snapshot	-9.73754
ho	-9.73831
lex	-9.73953
latex	-9.73987
language	-9.74012
ite	-9.74254
cal	-9.74271
bound	-9.7434
IF	-9.74446
dim	-9.74561
Message	-9.74634
generators	-9.74661
SOCK	-9.74701
lify	-9.74723
alchemy	-9.74863
foreign	-9.74905
tan	-9.74932
city	-9.74944
OPTION	-9.75175
reindex	-9.75205
ub	-9.75447
List	-9.75462
tcp	-9.75489
scripts	-9.75491
Fore	-9.75594
Setting	-9.75618
ql	-9.75648
explicit	-9.75711
File	-9.75728
styles	-9.75832
support	-9.75854
identifiers	-9.759
cell	-9.76023
Entity	-9.76044
host	-9.76065
wave	-9.76213
Temporar	-9.76332
TIMEOUT	-9.76534
unicode	-9.76566
make	-9.76666
PER	-9.76704
similarit	-9.76813
below	-9.76815
secs	-9.76866
gather	-9.7694
week	-9.76959
enc	-9.7699
ME	-9.77041
chains	-9.77096
clip	-9.77159
output	-9.77206
req	-9.7723
AN	-9.77393
sample	-9.77686
report	-9.77777
astro	-9.77813
EC	-9.77856
gray	-9.77964
IGNORE	-9.78177
fl	-9.78284
here	-9.78366
source	-9.78382
ij	-9.78462
reqs	-9.78577
Stats	-9.7865
Meas	-9.78774
relations	-9.78783
vis	-9.78804
las	-9.78841
authenticated	-9.789
ty	-9.78901
CI	-9.78914
roll	-9.78932
interactive	-9.79113
normal	-9.79119
rms	-9.79211
bold	-9.79287
Connection	-9.79289
Field	-9.79293
ave	-9.79397
stripped	-9.79449
bb	-9.79555
oformat	-9.79747
EL	-9.79799
efficient	-9.79949
scalar	-9.79955
inc	-9.7997
preferred	-9.80067
multiply	-9.80138
CG	-9.80171
click	-9.80179
mix	-9.8021
xticklabel	-9.80249
passwd	-9.80266
lock	-9.80339
compile	-9.8036
neare	-9.8045
alt	-9.80463
Conv	-9.8052
escape	-9.80586
Application	-9.808
posix	-9.80878
stat	-9.80923
authenticate	-9.80978
velocit	-9.80991
stead	-9.81008
part	-9.81036
repos	-9.81392
pool	-9.81415
tmpdir	-9.81444
dat	-9.8155
first	-9.81628
manage	-9.81665
LY	-9.81742
rf	-9.81772
selenium	-9.8185
characters	-9.8185
wsgi	-9.81852
both	-9.81898
fore	-9.81965
byte	-9.81992
GL	-9.82026
debug	-9.82056
hu	-9.8206
CV	-9.82142
cls	-9.82166
pb	-9.82201
LENGTH	-9.82234
SIG	-9.82295
fp	-9.82302
sat	-9.82332
profiles	-9.82356
work	-9.82472
alignment	-9.82582
lin	-9.82601
products	-9.82661
emory	-9.82699
paginat	-9.82717
touch	-9.82756
cpus	-9.82836
tqd	-9.82926
transactions	-9.8301
STRING	-9.83027
kmi	-9.83112
clients	-9.83134
titles	-9.83212
AB	-9.83391
axs	-9.83401
scales	-9.83449
texts	-9.83465
mount	-9.83496
ities	-9.83498
pg	-9.83695
ONE	-9.83811
send	-9.8394
TABLE	-9.83951
mm	-9.84107
wi	-9.84149
localize	-9.84155
getsize	-9.84228
dirty	-9.84244
tic	-9.84259
Column	-9.84277
car	-9.8439
suppress	-9.84488
select	-9.84578
ment	-9.84637
button	-9.8477
kv	-9.84806
ized	-9.84819
MESSAGE	-9.84868
prt	-9.84892
declar	-9.84955
dum	-9.85084
decorat	-9.85088
authors	-9.85137
namespaced	-9.85218
there	-9.85231
IDs	-9.85231
delta	-9.85383
Linear	-9.85539
real	-9.85581
AM	-9.85649
nb	-9.85691
URL	-9.85722
pwd	-9.85792
iv	-9.85845
TOKEN	-9.85862
quick	-9.85862
play	-9.85986
grp	-9.86031
Files	-9.86088
lons	-9.86141
press	-9.86164
folders	-9.86251
inf	-9.86311
IR	-9.86341
plots	-9.8651
Copy	-9.86616
nc	-9.86672
rates	-9.86805
transition	-9.86941
curse	-9.87077
bright	-9.87205
indx	-9.87216
effective	-9.8727
Prefix	-9.8731
au	-9.87329
mer	-9.87351
number	-9.87356
tiles	-9.87524
vl	-9.87559
acc	-9.87683
ga	-9.87765
ctl	-9.87879
years	-9.87986
bg	-9.8799
osid	-9.87995
grads	-9.87997
MO	-9.88041
NUM	-9.88116
spectrum	-9.88185
Authenticat	-9.88185
kw	-9.8821
STR	-9.88245
simple	-9.885
Miss	-9.88549
rst	-9.88549
DATE	-9.8862
Require	-9.88698
validator	-9.88703
health	-9.88713
HOST	-9.88813
Binar	-9.88828
snmp	-9.88839
Time	-9.88853
fcoe	-9.88876
head	-9.8889
lats	-9.88895
Timer	-9.89202
ln	-9.89324
mass	-9.89486
vcs	-9.89541
osp	-9.89601
term	-9.8968
CH	-9.897
POINTER	-9.89954
syntax	-9.90067
ENT	-9.90254
ents	-9.90263
bits	-9.90316
step	-9.90325
myminio	-9.90412
ERR	-9.90536
std	-9.90569
spans	-9.906
fx	-9.90604
fieldnames	-9.9082
ill	-9.90853
via	-9.90868
specify	-9.90924
limit	-9.90975
atleast	-9.90998
aligned	-9.91104
TAG	-9.91149
mydict	-9.91152
PP	-9.91209
smtp	-9.91329
sanitize	-9.91329
imports	-9.91359
csv	-9.91367
flat	-9.91372
gps	-9.91388
insert	-9.91604
IT	-9.91624
AC	-9.91715
bed	-9.91796
allow	-9.92084
ND	-9.92124
masks	-9.92146
mc	-9.92268
unquote	-9.92333
TEMPLATE	-9.92359
sym	-9.92369
freq	-9.92386
Mo	-9.92454
art	-9.9261
follow	-9.9268
extracted	-9.92711
mods	-9.92806
deprecate	-9.92893
certs	-9.92897
prime	-9.92941
regs	-9.9298
burn	-9.92995
feats	-9.93058
dest	-9.93136
mtf	-9.93194
includes	-9.93416
Mixin	-9.93539
tagged	-9.93542
findite	-9.93609
validated	-9.93616
excel	-9.93661
infos	-9.93744
jd	-9.93775
uses	-9.93847
recipient	-9.93862
engine	-9.93865
WARNING	-9.93867
No	-9.9396
Array	-9.94081
Default	-9.94081
ons	-9.94195
ground	-9.94217
phase	-9.94302
sw	-9.9431
azure	-9.94324
attachment	-9.94342
ION	-9.9442
wr	-9.9444
UP	-9.94614
represent	-9.9463
queues	-9.94668
Segment	-9.9467
wcs	-9.94707
nl	-9.94724
AP	-9.94777
zmq	-9.94843
curve	-9.94865
future	-9.94868
DC	-9.94897
free	-9.94921
structure	-9.94935
feed	-9.94965
sampled	-9.94979
eprecation	-9.95052
TH	-9.95095
CASE	-9.95127
seg	-9.95355
lask	-9.9543
case	-9.95508
assigned	-9.95554
zero	-9.95602
SCons	-9.95626
backend	-9.9563
ke	-9.95668
iko	-9.9571
cn	-9.9573
ze	-9.95845
ev	-9.95876
tight	-9.95941
Media	-9.95984
parsers	-9.96025
STREAM	-9.96049
associate	-9.9605
Categor	-9.96087
cons	-9.96244
tensor	-9.96274
St	-9.96311
Func	-9.96342
curl	-9.96563
Runn	-9.96609
linked	-9.96627
hat	-9.96654
unit	-9.96684
js	-9.96845
va	-9.96856
Securit	-9.96881
ence	-9.96914
nn	-9.96961
ization	-9.97066
NT	-9.97109
Link	-9.97166
Librar	-9.97274
qte	-9.97331
yes	-9.97398
det	-9.9744
threshold	-9.97499
idle	-9.97622
Event	-9.97659
pdf	-9.97722
chosen	-9.97723
successful	-9.97774
VAR	-9.97843
exec	-9.97946
TCP	-9.98155
periodic	-9.98303
blocking	-9.98408
rev	-9.98443
DS	-9.98529
writer	-9.98656
ratio	-9.98689
EVENT	-9.9875
vers	-9.98929
project	-9.99042
thing	-9.9907
reach	-9.99122
Down	-9.99153
dbus	-9.99237
tra	-9.99299
networks	-9.99362
SE	-9.99467
lega	-9.99576
DR	-9.99603
heap	-9.99651
Util	-9.99694
sea	-9.99694
share	-9.99738
prefix	-9.99835
ability	-9.99862
lr	-9.99902
signing	-9.99973
ack	-10
mail	-10.0004
short	-10.0006
book	-10.0009
HO	-10.003
etitem	-10.0033
CE	-10.0036
lt	-10.0045
expired	-10.0053
bee	-10.0054
ass	-10.0064
mol	-10.0068
zones	-10.0085
answer	-10.0092
uid	-10.01
red	-10.0103
pil	-10.0103
IM	-10.0107
factor	-10.0107
dos	-10.0125
agger	-10.0133
trigger	-10.0135
References	-10.0139
eft	-10.0158
bot	-10.0166
kit	-10.017
flash	-10.0174
ML	-10.0178
commit	-10.0179
module	-10.0182
pmag	-10.0187
Analys	-10.0197
CL	-10.0198
gap	-10.0207
mk	-10.0208
syn	-10.0213
cor	-10.0223
Ch	-10.0226
rb	-10.0232
cm	-10.0239
cost	-10.0242
RDF	-10.0252
Wh	-10.0253
eble	-10.0256
edge	-10.0262
Widget	-10.0268
calc	-10.0271
Gu	-10.0275
lim	-10.0278
ocator	-10.0279
orders	-10.028
iz	-10.0287
quoted	-10.0287
fopen	-10.0291
glob	-10.0293
REGEX	-10.0297
provider	-10.0306
ine	-10.0319
Net	-10.0321
CF	-10.0325
Tr	-10.0341
ov	-10.0357
Progress	-10.0363
segs	-10.0374
intensit	-10.0375
MS	-10.0378
PIL	-10.0382
own	-10.0385
rot	-10.039
datetime	-10.039
sign	-10.0395
CONF	-10.0404
Exist	-10.041
nu	-10.0412
rsa	-10.0414
circ	-10.0414
Multiple	-10.0429
bridge	-10.0429
MULTI	-10.0433
power	-10.0435
conn	-10.0445
trace	-10.0447
AND	-10.0455
look	-10.0472
high	-10.0478
Axi	-10.048
kinter	-10.0487
ik	-10.0494
discover	-10.0503
hose	-10.0511
Fix	-10.0524
Col	-10.0527
proto	-10.054
ants	-10.0555
nic	-10.0564
PATTERN	-10.0567
distinct	-10.0567
Full	-10.0571
append	-10.0574
notification	-10.058
fraction	-10.0594
unix	-10.0596
Line	-10.0601
cairo	-10.0604
iters	-10.0617
ial	-10.0619
reference	-10.063
rnd	-10.0632
Row	-10.0641
html	-10.0641
UT	-10.0644
Git	-10.0645
km	-10.065
sutil	-10.0655
fun	-10.0667
imported	-10.0673
target	-10.0679
price	-10.0681
joined	-10.0685
cipher	-10.069
listener	-10.0691
batch	-10.0691
light	-10.0692
home	-10.0693
MI	-10.0694
indent	-10.0702
arrow	-10.0705
cj	-10.0706
gh	-10.0712
ftp	-10.0714
FS	-10.0718
bill	-10.0722
largest	-10.0739
REQUEST	-10.0752
symmetric	-10.0752
Regress	-10.0753
mb	-10.0768
locate	-10.0775
af	-10.0781
quote	-10.0786
reports	-10.0788
NE	-10.0791
echo	-10.0799
derived	-10.0813
slice	-10.0819
qual	-10.0822
LOCAL	-10.0827
detach	-10.0827
TOP	-10.084
hyper	-10.0844
can	-10.085
SSH	-10.085
pot	-10.0852
mongo	-10.0853
Axe	-10.086
blob	-10.0878
ets	-10.0878
authorit	-10.088
release	-10.0882
ok	-10.0883
experiment	-10.0889
simulate	-10.089
daily	-10.0902
addrs	-10.0905
peer	-10.0905
force	-10.0908
hmac	-10.091
MSG	-10.091
vv	-10.0923
leaves	-10.0929
boundar	-10.0933
task	-10.0933
tl	-10.094
fitness	-10.0944
ithub	-10.0946
any	-10.0955
stoppe	-10.0955
method	-10.0958
rollback	-10.0959
translation	-10.0964
VER	-10.0968
LABEL	-10.0978
permutation	-10.0991
IES	-10.0992
bio	-10.0997
ender	-10.1009
secrets	-10.1009
regular	-10.1014
pri	-10.1031
queue	-10.1031
Many	-10.1038
splitted	-10.1042
trees	-10.1044
fi	-10.105
ie	-10.1055
xc	-10.1055
arm	-10.1055
retrieve	-10.1064
tensors	-10.1066
translat	-10.1067
Key	-10.1067
VALID	-10.1075
expression	-10.1077
bins	-10.1078
ier	-10.108
vecs	-10.1082
Frame	-10.1082
we	-10.1086
modifier	-10.1105
counters	-10.1107
zone	-10.111
yield	-10.1118
cherry	-10.1118
CD	-10.1123
LIB	-10.1137
strs	-10.114
karg	-10.1147
extra	-10.1147
Xml	-10.1152
Work	-10.1154
sms	-10.1157
CO	-10.116
redirect	-10.118
Nu	-10.1188
wt	-10.1191
assembly	-10.1195
where	-10.1195
ward	-10.1196
COL	-10.1199
failure	-10.1201
waiting	-10.1207
ay	-10.1207
Session	-10.1209
cd	-10.1211
atlas	-10.1212
zs	-10.1215
readable	-10.1217
agents	-10.1223
plaintext	-10.1234
stop	-10.1236
peak	-10.1237
capitalize	-10.1247
converge	-10.1247
agg	-10.1252
Ne	-10.1252
CIM	-10.126
moves	-10.126
fasta	-10.1269
aio	-10.127
water	-10.1278
SO	-10.1283
Server	-10.1285
modul	-10.1288
OUT	-10.1291
create	-10.1291
markdown	-10.1292
lon	-10.1293
jvm	-10.1299
irefox	-10.1309
virt	-10.1313
gpg	-10.1316
community	-10.1319
QL	-10.1323
subject	-10.1326
exclusive	-10.1327
encoding	-10.1328
air	-10.1332
mlab	-10.134
ABLE	-10.1341
verifi	-10.1343
oo	-10.1344
vg	-10.1345
uni	-10.1346
like	-10.1353
mx	-10.1354
NL	-10.1355
score	-10.1357
pick	-10.1357
linesep	-10.1363
Unknow	-10.1365
decompress	-10.137
Record	-10.1374
Constant	-10.1376
ft	-10.1382
correspond	-10.1392
shp	-10.1397
flu	-10.14
exception	-10.1408
loader	-10.141
try	-10.1418
pol	-10.1418
moving	-10.1419
evaluat	-10.1419
qt	-10.142
jar	-10.1424
fw	-10.1436
COMMAND	-10.1458
parms	-10.1464
card	-10.1465
frac	-10.1466
Consol	-10.1473
eneric	-10.1475
gandi	-10.1477
ber	-10.1478
AES	-10.1486
Non	-10.1487
lb	-10.1488
hashed	-10.1491
kwargs	-10.1493
has	-10.1495
plist	-10.1495
coo	-10.1496
windl	-10.1499
comm	-10.1521
yi	-10.1533
Dispatch	-10.1539
OF	-10.1544
assignment	-10.1554
plotlib	-10.1556
Be	-10.1559
lst	-10.1568
Some	-10.1579
sky	-10.1582
best	-10.1583
OPEN	-10.1606
jsonif	-10.1614
course	-10.1619
NX	-10.1631
cats	-10.1632
minus	-10.1633
duration	-10.1636
zure	-10.1637
COUNT	-10.1639
REQUIRE	-10.1646
ever	-10.1646
directed	-10.1646
REF	-10.1662
ram	-10.1672
emails	-10.1682
NAMESPACE	-10.1688
our	-10.169
fragment	-10.1698
fail	-10.1699
adjacency	-10.17
greater	-10.1717
gg	-10.1723
chunk	-10.1737
Attribute	-10.1741
CT	-10.1743
partition	-10.1748
random	-10.1759
being	-10.1759
inet	-10.1761
Identit	-10.1761
Al	-10.1767
tracks	-10.177
fnames	-10.1777
struct	-10.1781
super	-10.1781
delivery	-10.1786
ton	-10.1786
gram	-10.1794
along	-10.1794
posts	-10.1797
LEN	-10.1797
resume	-10.1797
inches	-10.1797
swap	-10.18
session	-10.1813
handle	-10.1815
replacement	-10.1821
toks	-10.1822
RSA	-10.1844
affect	-10.1852
integer	-10.1852
temporary	-10.1852
KEYS	-10.1864
cv	-10.187
erialization	-10.1873
Argument	-10.1879
STDOUT	-10.1879
logged	-10.188
NONE	-10.1883
total	-10.1894
display	-10.1895
sums	-10.1905
gene	-10.191
Text	-10.192
change	-10.192
pac	-10.1923
gz	-10.1931
LEVEL	-10.1935
gui	-10.1946
polygon	-10.1949
When	-10.1952
getter	-10.1956
NODE	-10.1957
USE	-10.1959
lmax	-10.1964
celery	-10.1967
layer	-10.1967
shle	-10.1968
tabs	-10.1973
pw	-10.1973
MP	-10.1978
filled	-10.1989
consensus	-10.1991
site	-10.1991
qqq	-10.1991
arctan	-10.2003
readonly	-10.2006
locus	-10.2007
envs	-10.2015
vote	-10.2016
SC	-10.2019
EMAIL	-10.2021
adm	-10.2021
chrome	-10.2022
Group	-10.2022
Can	-10.2024
Type	-10.203
past	-10.2032
hist	-10.2032
Help	-10.2034
Basic	-10.2047
grad	-10.2048
depth	-10.2054
Pr	-10.2059
reserve	-10.207
CLIENT	-10.208
Update	-10.2089
INVALID	-10.2091
another	-10.2094
cent	-10.2097
CHECK	-10.2104
trajectory	-10.2106
sensitive	-10.2109
extent	-10.2118
Serial	-10.2118
contact	-10.2133
graphs	-10.2138
TEST	-10.2141
scoped	-10.2144
timeout	-10.2146
LEFT	-10.2147
formatting	-10.2149
setup	-10.2149
Var	-10.2155
diag	-10.2159
Virtual	-10.2161
lowercase	-10.2161
incom	-10.2165
gradient	-10.2175
bounding	-10.2186
ending	-10.2187
miss	-10.2189
archive	-10.2191
drag	-10.2196
procs	-10.2205
fcnt	-10.2207
adjust	-10.2208
rhol	-10.2215
unstack	-10.2216
imp	-10.2221
Const	-10.2231
AX	-10.2236
cbar	-10.2239
pub	-10.2239
yticklabel	-10.2246
uoa	-10.225
packet	-10.2254
mktime	-10.2256
EOF	-10.2261
DX	-10.2268
LA	-10.2281
excludes	-10.2282
Data	-10.2287
PROCESS	-10.229
inherit	-10.229
systems	-10.229
QA	-10.2318
binned	-10.232
extract	-10.2323
dlg	-10.2328
cert	-10.233
exit	-10.2332
separator	-10.2334
pst	-10.2348
uri	-10.2349
put	-10.2357
found	-10.236
kn	-10.2364
visibility	-10.2367
verts	-10.2367
stars	-10.2373
Visibl	-10.2373
python	-10.2375
TR	-10.2376
EN	-10.24
rosa	-10.2405
purge	-10.2407
areas	-10.2408
flattened	-10.2411
energ	-10.2412
overall	-10.2414
tilde	-10.2416
least	-10.2423
Action	-10.2437
invert	-10.2441
APP	-10.2444
ure	-10.2449
NAMES	-10.245
LINK	-10.2451
textwrap	-10.2451
Cd	-10.2455
ense	-10.2458
tim	-10.2459
RO	-10.246
alpha	-10.2461
fds	-10.2462
for	-10.2462
connect	-10.247
bars	-10.2471
job	-10.2475
bgp	-10.2477
OUTPUT	-10.248
Base	-10.2494
Registr	-10.2495
forward	-10.2495
disks	-10.2496
Async	-10.25
ou	-10.2512
ome	-10.2514
friendly	-10.2524
PI	-10.2526
Transfer	-10.2539
anchors	-10.2564
pycdlib	-10.2569
ible	-10.2575
only	-10.258
overlap	-10.2584
alleles	-10.2586
hr	-10.2592
mtime	-10.2597
scheduled	-10.2597
effects	-10.2598
marker	-10.26
born	-10.2602
cookie	-10.261
Litera	-10.2612
Abstract	-10.2613
convolve	-10.2613
mon	-10.2615
highest	-10.2617
boot	-10.2619
leading	-10.2628
study	-10.2628
EVT	-10.263
SM	-10.2631
live	-10.2634
RD	-10.2635
artifact	-10.264
downloaded	-10.2643
tp	-10.2648
dash	-10.265
drop	-10.2653
matrice	-10.2658
ten	-10.2662
sta	-10.2671
dbs	-10.2671
Header	-10.2674
ctrlpts	-10.2674
overrid	-10.2677
align	-10.2683
linux	-10.2686
az	-10.2694
timezone	-10.2695
others	-10.27
INPUT	-10.2703
channel	-10.271
them	-10.2718
scan	-10.2724
vol	-10.2732
compatible	-10.2738
margin	-10.2741
Configur	-10.2743
ina	-10.2751
distribution	-10.2752
early	-10.2756
Debug	-10.2757
RA	-10.2759
instruct	-10.2767
XY	-10.2775
content	-10.2776
automatic	-10.2779
SERVER	-10.278
wincon	-10.2786
implemented	-10.2796
Propert	-10.2801
later	-10.2803
ints	-10.2808
Features	-10.281
gaps	-10.282
imgs	-10.2824
descriptor	-10.2825
attribs	-10.2825
review	-10.283
coefs	-10.2833
aa	-10.2838
convd	-10.2839
Public	-10.284
CC	-10.284
ue	-10.2848
radii	-10.2851
GROUP	-10.2855
countries	-10.2855
abs	-10.2859
upper	-10.2868
self	-10.2876
maker	-10.2883
Operation	-10.2886
FOR	-10.2892
fac	-10.2905
confirm	-10.2914
ages	-10.2915
ENDPOINT	-10.2917
colored	-10.2922
FILES	-10.2926
LANGUAGE	-10.2932
mins	-10.2953
aw	-10.2973
buffers	-10.2974
Ext	-10.2975
ann	-10.2976
stops	-10.2978
tick	-10.2982
LIMIT	-10.2984
deltas	-10.2984
wf	-10.2989
Method	-10.2994
skipped	-10.2995
devnull	-10.2998
applied	-10.3004
quotes	-10.3015
arch	-10.3017
flag	-10.3019
prepared	-10.302
stage	-10.3036
der	-10.3043
warm	-10.3055
dump	-10.3058
Block	-10.3058
rom	-10.306
angle	-10.3061
outs	-10.3067
met	-10.3072
migrate	-10.3072
logger	-10.3074
EXT	-10.3075
spi	-10.3082
CFG	-10.3082
such	-10.3087
cdata	-10.3097
ava	-10.3101
DOWN	-10.3102
NUMBER	-10.3103
transformer	-10.3104
Geometr	-10.3104
Std	-10.3105
ngram	-10.3109
solar	-10.3117
cen	-10.3118
gates	-10.3125
gapi	-10.3127
OT	-10.3134
loci	-10.314
books	-10.3142
CDF	-10.3147
builtins	-10.3149
fft	-10.3152
UL	-10.3157
detect	-10.3164
AUTH	-10.3178
manager	-10.3187
trimmed	-10.3198
asm	-10.3201
Tree	-10.3202
WIDTH	-10.3214
pixel	-10.3215
folds	-10.3219
thin	-10.322
UI	-10.3222
CONST	-10.3225
good	-10.323
matmul	-10.3231
ler	-10.3235
vd	-10.3237
allclose	-10.3239
AWS	-10.3241
oq	-10.3244
SERVICE	-10.3245
east	-10.3246
arcsec	-10.3247
RESET	-10.3252
expiry	-10.3261
hpy	-10.3263
unregister	-10.3266
Init	-10.3277
wp	-10.3278
ancestor	-10.3278
ide	-10.3281
uch	-10.3281
LOAD	-10.3293
phy	-10.3295
Qu	-10.3302
merge	-10.3305
flows	-10.3317
ads	-10.3321
ats	-10.3322
relevant	-10.3325
hp	-10.3328
ana	-10.3331
SUCCESS	-10.3341
screen	-10.3341
ki	-10.3344
pv	-10.3347
Indic	-10.3348
gi	-10.3352
chmod	-10.3353
objectinfo	-10.3354
les	-10.3356
PROTOCOL	-10.3359
vectorize	-10.337
metaclass	-10.3372
cards	-10.3374
OPT	-10.3375
Pass	-10.339
sensor	-10.3398
emb	-10.3403
DO	-10.3404
FACTOR	-10.3406
PARAM	-10.3409
palm	-10.3411
AV	-10.3416
Count	-10.3421
ACCESS	-10.3422
peek	-10.3422
inferred	-10.3424
rule	-10.3426
spine	-10.3427
astr	-10.345
tion	-10.3451
WS	-10.3451
og	-10.3454
cont	-10.3456
lower	-10.3457
dq	-10.3462
Te	-10.3468
ros	-10.3477
hints	-10.3484
Regex	-10.3487
recs	-10.3494
Color	-10.3494
ade	-10.3496
dimage	-10.3503
CONSTANT	-10.3504
We	-10.3508
made	-10.351
ified	-10.3511
ACTION	-10.352
trunc	-10.352
cluster	-10.3521
copied	-10.3534
token	-10.3535
Summar	-10.3536
truncat	-10.3536
csrf	-10.3544
clipp	-10.3546
kd	-10.355
hot	-10.3559
quot	-10.3562
PARAMS	-10.3566
Raise	-10.3569
IMAGE	-10.3569
float	-10.357
PAGE	-10.3576
frozen	-10.3581
suffixe	-10.3597
half	-10.3604
mst	-10.3605
srs	-10.3607
uris	-10.361
Use	-10.3616
MENT	-10.3617
decimal	-10.3618
execute	-10.3627
mkd	-10.3627
shard	-10.3631
close	-10.364
FIELDS	-10.365
compar	-10.3653
central	-10.3668
hz	-10.3673
hl	-10.3694
ipy	-10.3695
plott	-10.3695
origin	-10.3712
repeat	-10.3723
bad	-10.3726
ranks	-10.3747
ctx	-10.3749
Sh	-10.375
hook	-10.3752
child	-10.3752
UTC	-10.3766
element	-10.3771
rgb	-10.3773
trailing	-10.3777
wd	-10.3787
atom	-10.3796
evals	-10.3802
contract	-10.3803
square	-10.3803
analyses	-10.3806
management	-10.3808
opup	-10.3814
tumor	-10.3818
cub	-10.382
oose	-10.3821
quant	-10.3826
company	-10.3836
stddev	-10.3837
interpolat	-10.3852
Sp	-10.3865
decrypted	-10.3868
avg	-10.3872
nlp	-10.3884
cond	-10.3884
description	-10.3886
dup	-10.3894
frm	-10.3897
buse	-10.3897
Trans	-10.39
nts	-10.3901
keep	-10.3908
www	-10.392
persisten	-10.3934
remote	-10.3935
PRE	-10.394
SOURCE	-10.3953
gauss	-10.3954
built	-10.3955
vor	-10.3955
softmax	-10.3957
bokeh	-10.3958
Long	-10.396
avail	-10.3961
PA	-10.3961
Size	-10.3967
claims	-10.3972
TER	-10.3985
getroot	-10.3988
produce	-10.3989
sockopt	-10.3991
fin	-10.3994
simplif	-10.3996
template	-10.3997
dll	-10.3999
database	-10.4002
arity	-10.4002
vailable	-10.4005
BUFFER	-10.4005
contiguous	-10.4005
nk	-10.4008
anti	-10.4018
series	-10.4031
snps	-10.4036
explore	-10.4041
prev	-10.4041
conflict	-10.4057
traffic	-10.406
dst	-10.4063
zipped	-10.4064
hh	-10.4064
ice	-10.4069
pider	-10.4075
LI	-10.4087
univ	-10.4088
board	-10.409
MB	-10.4091
Redis	-10.4093
plan	-10.4098
reaction	-10.4101
RT	-10.4103
residual	-10.4109
separate	-10.4109
SCRIPT	-10.4109
plane	-10.4112
soap	-10.4112
eigen	-10.4115
discovery	-10.4117
payload	-10.4127
bq	-10.4131
Click	-10.4144
browser	-10.4144
ITY	-10.4149
cri	-10.4155
selector	-10.4159
too	-10.416
sls	-10.4168
socket	-10.417
conv	-10.4172
ile	-10.4177
ansi	-10.4181
with	-10.4187
Model	-10.4187
ENV	-10.4194
Val	-10.42
graphic	-10.4202
ell	-10.4218
ABC	-10.422
encode	-10.4224
continuous	-10.4227
update	-10.423
floating	-10.4232
cuda	-10.4236
inst	-10.4241
compact	-10.4242
OP	-10.4249
fully	-10.4249
solve	-10.4252
contour	-10.426
cnt	-10.4269
Pot	-10.4271
two	-10.4279
DT	-10.428
would	-10.4284
DER	-10.4284
unsigned	-10.4288
nf	-10.4291
cart	-10.4297
Po	-10.43
Canvas	-10.4302
PS	-10.4306
valid	-10.4316
gamma	-10.4321
restrict	-10.4324
Log	-10.4325
reader	-10.4333
vcf	-10.4333
bind	-10.4336
operators	-10.4337
Sets	-10.4338
xfer	-10.4338
pipe	-10.4339
Labels	-10.435
OM	-10.4357
outf	-10.4359
GP	-10.4379
Encoder	-10.438
cho	-10.4381
eff	-10.4385
dcm	-10.4385
aggregate	-10.4391
Gamma	-10.4391
attached	-10.4393
writes	-10.4398
stride	-10.4405
stp	-10.4406
Dictionary	-10.4408
Repositor	-10.4408
LL	-10.4413
smoothing	-10.4415
chans	-10.4417
rfind	-10.4417
QT	-10.4423
wnd	-10.443
ification	-10.4432
Bod	-10.4433
depends	-10.4437
tips	-10.4437
hip	-10.4447
DD	-10.4459
tics	-10.4463
Pre	-10.4476
period	-10.4479
finfo	-10.4483
llegal	-10.4488
Handler	-10.4495
getpi	-10.4503
POS	-10.4504
Read	-10.4504
postprocess	-10.4507
north	-10.4514
PE	-10.4514
park	-10.452
psi	-10.4525
BYTES	-10.4525
ry	-10.453
cmp	-10.453
math	-10.4536
ignore	-10.4539
Int	-10.4539
stick	-10.4541
exif	-10.4543
Big	-10.4543
deserializ	-10.4546
Calculat	-10.4552
revoke	-10.4553
Pickle	-10.4555
defines	-10.4563
gevent	-10.4568
udio	-10.4569
tilt	-10.4576
connectivit	-10.4584
heights	-10.4584
ful	-10.4585
rich	-10.4593
uuid	-10.4608
sep	-10.4615
WD	-10.4619
aes	-10.4623
clear	-10.4624
jump	-10.4627
true	-10.4633
layout	-10.4637
Response	-10.4643
rect	-10.4644
variate	-10.4656
els	-10.4659
assemble	-10.4661
deg	-10.4662
monitor	-10.4664
qos	-10.4664
digest	-10.4666
WRITE	-10.4672
EST	-10.4673
DESCRIPTION	-10.468
spice	-10.4683
record	-10.4687
dur	-10.4693
SETTING	-10.4698
crypto	-10.4702
VAL	-10.4723
LOCK	-10.4725
creat	-10.4726
mpp	-10.4734
processor	-10.474
Image	-10.4742
scp	-10.4744
Repl	-10.4748
GA	-10.4753
folder	-10.4754
magsareflux	-10.4754
her	-10.4761
usb	-10.4762
hildren	-10.4769
rfc	-10.4773
cene	-10.4774
TM	-10.4776
Bus	-10.4784
oof	-10.4786
optim	-10.4787
zlib	-10.4793
lowest	-10.4799
Mous	-10.4816
fir	-10.4817
pex	-10.4818
UM	-10.482
dom	-10.4824
lect	-10.4827
lsm	-10.4835
driver	-10.4839
printf	-10.4841
HAS	-10.4842
Filter	-10.4847
CONTENT	-10.4847
Htm	-10.485
Path	-10.485
observe	-10.4858
PYTHON	-10.4865
execut	-10.4871
orever	-10.4875
Scale	-10.4878
transcript	-10.4878
tations	-10.4879
due	-10.4879
construct	-10.4879
che	-10.4881
dbg	-10.4882
opacity	-10.4884
SEEK	-10.4884
proxy	-10.4886
fresh	-10.4893
CON	-10.4898
protocol	-10.49
tune	-10.4901
SMTP	-10.4903
ht	-10.4903
Last	-10.4904
TS	-10.4906
cax	-10.4907
mpl	-10.4908
qualifie	-10.491
RS	-10.4915
MODULE	-10.4922
EMPTY	-10.4922
Mass	-10.4923
warp	-10.4926
REG	-10.4926
DOT	-10.4931
hor	-10.4932
bonds	-10.4945
lease	-10.4951
syslog	-10.4952
String	-10.4952
WA	-10.4955
CHUNK	-10.496
STATIC	-10.496
master	-10.4972
svm	-10.4973
repo	-10.4973
completion	-10.4978
decl	-10.4979
caps	-10.4982
Fast	-10.4983
alist	-10.4986
BAD	-10.4988
beta	-10.4991
iet	-10.4994
First	-10.4997
weight	-10.4997
signature	-10.4998
coarse	-10.5016
topping	-10.5019
lal	-10.5029
flo	-10.503
curr	-10.5033
pickle	-10.5034
sock	-10.5035
accumulate	-10.5035
prob	-10.5038
apdu	-10.5044
xpos	-10.5045
Dir	-10.5047
logout	-10.5049
cum	-10.505
Bits	-10.505
SPEC	-10.5054
Start	-10.506
wa	-10.5061
schemas	-10.5066
FILTER	-10.5073
Ucs	-10.5081
height	-10.5092
FILENAME	-10.5094
sch	-10.5095
oa	-10.5105
xscale	-10.5106
traces	-10.5106
uncertaint	-10.5112
filepath	-10.5113
reduce	-10.5118
CHAR	-10.512
don	-10.512
exc	-10.5123
comment	-10.5128
outlier	-10.5131
DICT	-10.5133
converter	-10.5138
rbridge	-10.5141
asc	-10.5141
natural	-10.515
entry	-10.5156
LU	-10.5158
exact	-10.5164
ima	-10.5164
nbins	-10.5169
spect	-10.5172
Push	-10.5177
mid	-10.5185
floats	-10.5189
export	-10.519
Density	-10.5192
crypt	-10.5193
tup	-10.5196
Metric	-10.5208
configuration	-10.5208
Create	-10.5208
nth	-10.5212
ipython	-10.5214
mar	-10.5217
keepdim	-10.5217
seeds	-10.522
hd	-10.5225
mread	-10.5227
surviv	-10.5227
Content	-10.5227
smallest	-10.5228
DATABASE	-10.5232
atts	-10.5233
ackground	-10.5244
VI	-10.5254
lxc	-10.5258
final	-10.5261
pat	-10.5267
identit	-10.527
subset	-10.5273
tol	-10.528
Logg	-10.5285
directive	-10.5287
activation	-10.5288
kill	-10.5292
ANT	-10.5298
assum	-10.5301
SECRET	-10.5305
side	-10.5313
SUPPORTE	-10.5316
Histor	-10.5322
placeholder	-10.5325
Press	-10.5328
comb	-10.533
profile	-10.5331
mgr	-10.5336
LOGG	-10.5337
SOL	-10.5354
phases	-10.5356
rough	-10.5357
ANY	-10.5358
isabs	-10.5362
severit	-10.5362
UNICODE	-10.5364
mdata	-10.5366
cid	-10.5373
dsn	-10.5376
LC	-10.5377
cool	-10.5379
triangles	-10.5386
State	-10.5387
rescale	-10.5391
trac	-10.5393
Graph	-10.5401
late	-10.541
gpu	-10.5411
area	-10.5414
pks	-10.5417
POINT	-10.5419
vo	-10.5421
TA	-10.5423
AUTO	-10.5424
freeze	-10.5424
controls	-10.5425
foo	-10.5427
SR	-10.5429
prun	-10.5439
catalog	-10.5452
grant	-10.5454
corrected	-10.546
useful	-10.5463
UPDATE	-10.5464
camel	-10.5464
opened	-10.5469
delay	-10.5471
tas	-10.5472
marks	-10.5478
resampl	-10.5481
rid	-10.5481
wanted	-10.5483
Add	-10.5489
cim	-10.5491
request	-10.5498
song	-10.55
perform	-10.55
tw	-10.5501
SCHEMA	-10.5503
lims	-10.5504
ntp	-10.5505
sol	-10.5517
OLD	-10.5518
ATTRIBUTE	-10.5523
stash	-10.5526
Pars	-10.553
handl	-10.5533
awa	-10.5537
REL	-10.5538
national	-10.5543
delete	-10.5545
firefox	-10.5549
Phi	-10.5554
Inter	-10.556
Ge	-10.556
MOD	-10.5562
identify	-10.5563
instrument	-10.5563
Specifie	-10.5574
pids	-10.5577
fg	-10.5579
Consume	-10.5584
staff	-10.5588
emp	-10.559
PASSWORD	-10.5603
reps	-10.5605
STOP	-10.5614
FAIL	-10.562
pretrained	-10.5623
uppercase	-10.5624
pkt	-10.5628
bel	-10.5632
lv	-10.5639
SECOND	-10.5643
fitted	-10.5644
prefetch	-10.5652
ish	-10.5657
unpack	-10.566
ordered	-10.5661
remotes	-10.5666
PR	-10.5668
slash	-10.5671
wk	-10.5675
computed	-10.5683
INDEX	-10.5684
team	-10.5687
HASH	-10.5692
knot	-10.5694
median	-10.5695
bool	-10.5697
breaks	-10.5702
WSGI	-10.5704
bench	-10.5705
symlink	-10.5712
Fac	-10.5722
compatibilit	-10.5723
RESPONSE	-10.5724
MEDIA	-10.5724
FRAME	-10.5725
udp	-10.5731
Gr	-10.5732
rdf	-10.5733
RR	-10.5734
menu	-10.5736
Printe	-10.5736
genus	-10.5742
bra	-10.5742
BACK	-10.5742
TLS	-10.5745
opname	-10.5752
bare	-10.5759
monthly	-10.5761
depths	-10.5764
online	-10.5768
RAW	-10.5771
phone	-10.5776
program	-10.5777
relationship	-10.5787
static	-10.5796
resize	-10.5802
Sizer	-10.5803
writ	-10.5812
uids	-10.5814
wm	-10.5814
coding	-10.5816
globs	-10.5822
recommend	-10.5827
address	-10.583
pools	-10.5841
logp	-10.5843
sphinx	-10.5848
agains	-10.5852
ipaddress	-10.5854
ign	-10.5857
ard	-10.5859
onto	-10.5867
DEVICE	-10.5868
corner	-10.5869
SW	-10.5869
round	-10.5871
mutation	-10.5876
machines	-10.588
frags	-10.588
subnet	-10.5882
sue	-10.5885
Sys	-10.5886
RED	-10.5887
Skip	-10.5889
nr	-10.589
segment	-10.589
download	-10.5895
mit	-10.5898
Bound	-10.59
chr	-10.5903
ja	-10.5905
tran	-10.5922
things	-10.5926
redential	-10.593
certain	-10.593
MASK	-10.5931
keystone	-10.5934
fps	-10.5935
iterrow	-10.5936
iam	-10.5943
CHANGE	-10.5951
residue	-10.5951
twit	-10.5956
TRAIN	-10.5957
formatter	-10.5959
trials	-10.596
decorator	-10.5969
Scatter	-10.5972
tweets	-10.5973
sup	-10.5975
adapters	-10.5976
fabs	-10.598
year	-10.598
iterable	-10.5987
Dens	-10.5987
OFF	-10.5992
DELETE	-10.5993
FAILED	-10.5996
ult	-10.5997
ERS	-10.6
balance	-10.6001
gss	-10.6001
kf	-10.6007
tem	-10.6016
breakpoints	-10.6021
morph	-10.6021
eph	-10.6021
Fold	-10.6025
des	-10.604
Dis	-10.6041
polling	-10.6041
LT	-10.6046
taxonom	-10.6056
controller	-10.6056
Qg	-10.6059
panel	-10.606
snr	-10.606
colorize	-10.6061
Out	-10.6062
cod	-10.6064
getmember	-10.6066
props	-10.6066
CR	-10.6076
Safe	-10.6079
flds	-10.6084
Pix	-10.6085
cube	-10.6085
wide	-10.6088
Inv	-10.6089
chi	-10.609
jax	-10.6096
average	-10.6097
calling	-10.6098
QUERY	-10.6098
mmap	-10.6099
BINAR	-10.6103
chass	-10.6104
flip	-10.6108
classify	-10.6109
naxis	-10.611
eval	-10.6116
Component	-10.612
concern	-10.612
raster	-10.612
direct	-10.6121
quad	-10.6132
UR	-10.6137
adding	-10.6165
mini	-10.6168
ace	-10.6172
Ro	-10.6173
facet	-10.6178
Lv	-10.6182
Pen	-10.6183
necessar	-10.6183
sibling	-10.6183
existe	-10.6184
Loop	-10.6188
compound	-10.619
yarray	-10.6191
replaced	-10.6196
cancell	-10.6197
ORDER	-10.6202
GUI	-10.6202
hpars	-10.6203
includ	-10.6208
hw	-10.6209
meters	-10.621
psa	-10.6212
smoothed	-10.6216
drive	-10.6218
reward	-10.6218
Opt	-10.6221
totals	-10.6222
ky	-10.6225
clusive	-10.6225
knowledge	-10.6225
CURRENT	-10.6226
solution	-10.6226
Patch	-10.6226
vi	-10.6231
sigma	-10.6234
outside	-10.6236
typed	-10.6239
vari	-10.6239
vararg	-10.6242
Encrypt	-10.6248
voxels	-10.6248
Connect	-10.6248
gra	-10.6256
sigmas	-10.6259
cause	-10.626
Tra	-10.6262
WINDOW	-10.6269
Word	-10.6273
xgb	-10.6276
tot	-10.6287
places	-10.6287
xx	-10.6288
populat	-10.6293
PL	-10.6303
OUND	-10.6312
Input	-10.6321
acl	-10.6321
argtype	-10.6321
operand	-10.6323
summ	-10.6324
mixed	-10.6326
User	-10.6327
nova	-10.6329
Soft	-10.6329
vml	-10.6333
chunked	-10.6337
correct	-10.6337
annotated	-10.6346
eas	-10.6354
QUOTE	-10.6356
weak	-10.6357
SS	-10.6366
ah	-10.637
tb	-10.6371
gettext	-10.6374
IVE	-10.6378
ADDR	-10.6386
ensembl	-10.6389
consul	-10.6391
vector	-10.6393
You	-10.6399
works	-10.6411
Activity	-10.6411
tabula	-10.6422
den	-10.6424
clean	-10.6425
pk	-10.643
wrap	-10.6434
cds	-10.6436
migration	-10.6441
according	-10.6443
Dependenc	-10.6443
aware	-10.6448
Uni	-10.6452
reserv	-10.6454
yaw	-10.646
optimiz	-10.646
tmax	-10.6463
So	-10.6464
penalty	-10.6465
stress	-10.6465
cgi	-10.6466
ake	-10.6468
TI	-10.647
normed	-10.6473
propose	-10.6477
shar	-10.6483
itervalue	-10.6489
rounded	-10.6491
Token	-10.6499
gcf	-10.6501
galler	-10.6509
fastq	-10.6513
dark	-10.6521
tpu	-10.6522
eo	-10.6524
IX	-10.6526
mux	-10.653
extend	-10.6538
subscription	-10.6553
linear	-10.6558
lang	-10.6562
fuzzy	-10.6569
superclass	-10.6572
ENCODING	-10.6575
transfer	-10.6577
BATCH	-10.6597
zenith	-10.6597
High	-10.6597
Version	-10.6598
disk	-10.6599
nam	-10.66
prior	-10.6604
libxml	-10.6604
plt	-10.6606
NI	-10.6611
RC	-10.6615
COMMENT	-10.662
serie	-10.6622
Sort	-10.6624
mention	-10.6629
direction	-10.6629
take	-10.6633
west	-10.6634
repeated	-10.6636
HA	-10.6637
sequence	-10.6638
Align	-10.6639
CLOSE	-10.6642
thickness	-10.6645
independent	-10.6645
atan	-10.6648
cython	-10.6653
mono	-10.6655
sockets	-10.6656
BI	-10.6657
sure	-10.6657
amin	-10.6658
contigs	-10.6661
ibility	-10.6661
occurrence	-10.6665
mware	-10.6667
fonts	-10.668
Bi	-10.668
schema	-10.6682
note	-10.6685
dotted	-10.6688
exe	-10.6688
FP	-10.6695
ous	-10.6698
equals	-10.6701
GR	-10.6704
inject	-10.6709
witness	-10.6709
Support	-10.6709
ENABLE	-10.671
hdulist	-10.6717
sheets	-10.6721
beats	-10.6728
hosted	-10.673
vowel	-10.6732
concurrent	-10.6736
ntries	-10.6736
triples	-10.6743
mac	-10.6743
Operator	-10.6754
pypi	-10.676
column	-10.6762
Resolve	-10.6762
Real	-10.6764
hang	-10.6764
proj	-10.6765
ACTIV	-10.6767
RIGHT	-10.6768
zy	-10.6768
ature	-10.6771
ALIAS	-10.6777
Integr	-10.6777
summarie	-10.6777
prefs	-10.6778
filt	-10.6778
forced	-10.6782
RUN	-10.6783
nice	-10.6787
Step	-10.6793
ble	-10.6794
FUNCTION	-10.68
millisecond	-10.68
approve	-10.68
kind	-10.6808
AI	-10.6813
Mut	-10.6815
spin	-10.6817
sens	-10.6824
ups	-10.6828
Pi	-10.6828
org	-10.6829
media	-10.6832
blockstack	-10.6836
gc	-10.684
quantize	-10.6845
trusted	-10.6845
transit	-10.6845
dop	-10.6847
SITE	-10.6847
syllab	-10.6847
los	-10.6848
Service	-10.685
cash	-10.6851
hostname	-10.6853
yro	-10.6854
ped	-10.6857
express	-10.6859
eng	-10.6863
initial	-10.6865
peop	-10.6865
Sigma	-10.6868
Improper	-10.6868
vocabular	-10.687
iddleware	-10.688
Sky	-10.6886
mks	-10.6888
yscale	-10.689
conns	-10.6891
tau	-10.6894
MAC	-10.6896
ask	-10.69
dag	-10.6905
GINT	-10.6906
builder	-10.691
adapt	-10.6911
assign	-10.6914
TASK	-10.6914
FROM	-10.6914
affinit	-10.6915
CONTEXT	-10.6915
cursor	-10.6915
enrich	-10.6917
were	-10.6918
SU	-10.6929
uk	-10.6934
RETURN	-10.6937
attn	-10.694
DNS	-10.694
accum	-10.6953
utiliti	-10.6956
glyphs	-10.696
theano	-10.6962
TP	-10.6965
flt	-10.6967
fold	-10.697
STYLE	-10.6983
titan	-10.6985
macros	-10.6986
Colors	-10.6991
alts	-10.6991
route	-10.6991
turn	-10.7003
repr	-10.7007
Allow	-10.7015
curs	-10.7018
uu	-10.702
csc	-10.7026
alphas	-10.7027
VARIABLE	-10.7029
algorithm	-10.7029
psycopg	-10.7029
summarize	-10.7029
mutable	-10.7038
syms	-10.7045
onnx	-10.7049
protect	-10.7053
memoize	-10.7053
remove	-10.7054
eos	-10.7057
URE	-10.7066
dyn	-10.707
rem	-10.7071
Db	-10.7072
CSS	-10.7073
questions	-10.7076
Fetch	-10.7076
RPC	-10.708
lig	-10.7089
place	-10.7092
PT	-10.7095
motifs	-10.7098
YAML	-10.7099
PASS	-10.7103
Predict	-10.7119
interpd	-10.7123
optimal	-10.7132
meth	-10.7133
allocate	-10.7138
cascade	-10.7146
View	-10.7146
Bind	-10.7151
surf	-10.7158
gaia	-10.7161
tures	-10.7167
BS	-10.7168
seed	-10.717
exprs	-10.7175
ama	-10.7177
broker	-10.7185
BY	-10.7186
Quantit	-10.719
STORAGE	-10.7193
bank	-10.7195
interaction	-10.7195
lldp	-10.7203
help	-10.7207
ika	-10.7209
rep	-10.7211
speed	-10.7217
NORMAL	-10.7217
PD	-10.7233
substitution	-10.7241
Like	-10.7241
UNKNOWN	-10.7241
ox	-10.7242
Select	-10.7242
ritical	-10.7245
argin	-10.7252
window	-10.7258
break	-10.726
takes	-10.726
Hist	-10.7263
prog	-10.7266
Va	-10.7266
front	-10.7268
TF	-10.7273
INT	-10.7273
VC	-10.7275
Date	-10.7275
articles	-10.7279
bbox	-10.728
rush	-10.7281
lan	-10.7281
za	-10.7282
Indexe	-10.7288
span	-10.7296
Back	-10.7296
asan	-10.7297
twist	-10.7306
CUR	-10.7309
SEPARATOR	-10.7312
conjugate	-10.7312
GPS	-10.7313
pore	-10.7313
Other	-10.7314
norms	-10.7316
sides	-10.7317
ular	-10.7317
ypos	-10.732
salt	-10.7326
nsmap	-10.7328
move	-10.7329
VERBOS	-10.7336
systemd	-10.7337
GRAM	-10.7338
elastic	-10.7338
arkup	-10.7339
comes	-10.7341
hdfs	-10.7344
lookup	-10.735
recover	-10.7356
blk	-10.7358
TARGET	-10.736
predicate	-10.736
mut	-10.7361
Stream	-10.7368
mutex	-10.7373
lit	-10.7379
scans	-10.738
party	-10.7382
Publish	-10.7384
agp	-10.739
hb	-10.7391
particle	-10.7393
uv	-10.7393
FT	-10.7396
iq	-10.7399
ures	-10.7405
ark	-10.7405
bam	-10.7408
intersect	-10.7418
actors	-10.7418
ao	-10.7421
unk	-10.7422
Ang	-10.7426
IL	-10.7427
tok	-10.7435
service	-10.7442
negate	-10.7445
minmax	-10.7445
METHOD	-10.7448
Crypto	-10.7455
sliced	-10.7455
stretch	-10.7456
clause	-10.7457
dummi	-10.7467
nbr	-10.747
xt	-10.7473
npix	-10.7475
degrad	-10.7479
environment	-10.7481
DIRECTOR	-10.7481
multiplicit	-10.7495
ofs	-10.7498
unhex	-10.7501
DEV	-10.7504
upd	-10.7514
smooth	-10.752
More	-10.7524
dictionar	-10.7524
TT	-10.7525
Nx	-10.7528
ALIGN	-10.753
RESULT	-10.7534
interact	-10.7535
TX	-10.7538
Ln	-10.7544
chem	-10.7545
icon	-10.7545
UTF	-10.7548
CHARS	-10.7553
isalpha	-10.7553
NG	-10.7553
GLOBAL	-10.7554
bson	-10.7556
strip	-10.7561
common	-10.757
maintenance	-10.7578
Vertex	-10.7578
noise	-10.7586
MAV	-10.7587
NEW	-10.7588
icons	-10.7588
pcs	-10.7591
phot	-10.7596
shrink	-10.7598
Conf	-10.7599
GC	-10.7601
Abort	-10.7603
gro	-10.7604
lambda	-10.7606
higher	-10.7627
Dropout	-10.7628
kernel	-10.7628
cms	-10.763
drain	-10.7634
NON	-10.7637
LAST	-10.7637
kin	-10.7637
Code	-10.764
EPS	-10.7645
sos	-10.7645
RET	-10.7648
equiv	-10.7656
Part	-10.766
command	-10.766
CREATE	-10.7668
COMP	-10.7675
famili	-10.7677
wire	-10.7678
PROP	-10.7683
cvi	-10.7684
nmax	-10.7692
que	-10.7698
committ	-10.7701
byteord	-10.7708
idden	-10.771
cex	-10.771
Char	-10.7712
samp	-10.7717
hosting	-10.7719
hdrs	-10.773
measured	-10.7731
OD	-10.7751
ircuit	-10.7756
inactive	-10.7757
provisioning	-10.7759
fine	-10.7775
pty	-10.779
paint	-10.7794
Unit	-10.7795
lev	-10.7813
nxt	-10.7819
aq	-10.7825
Paginat	-10.7827
WAIT	-10.7827
indirect	-10.7831
zmax	-10.7834
chrom	-10.7835
rift	-10.7841
dic	-10.7842
elts	-10.7849
shortcut	-10.7853
Spec	-10.7856
aragraph	-10.7857
streaming	-10.7857
VR	-10.7864
Bo	-10.7864
grams	-10.7864
Pe	-10.7868
rest	-10.7874
UNIT	-10.7881
ADD	-10.7885
dep	-10.7886
cpp	-10.7888
pyxb	-10.7889
PO	-10.7894
inner	-10.79
librar	-10.79
satisfie	-10.7903
MAPPING	-10.7903
mps	-10.7903
subsets	-10.7905
ALT	-10.7909
magic	-10.7911
tile	-10.7921
esc	-10.7927
EXCEPTION	-10.7928
consistent	-10.7928
Suppress	-10.7928
Forward	-10.7928
Rotat	-10.7934
ane	-10.7934
cardinalit	-10.7936
readers	-10.7936
cvt	-10.7946
idom	-10.7947
patch	-10.7951
Closed	-10.7953
backup	-10.7955
nexus	-10.7955
gal	-10.7969
fdata	-10.797
umb	-10.7971
collected	-10.7972
qualifier	-10.7974
AST	-10.7975
setopt	-10.7977
imm	-10.7987
caller	-10.7989
ull	-10.7992
continu	-10.7993
under	-10.7998
FF	-10.8
iri	-10.8001
advance	-10.8005
uploaded	-10.8013
izer	-10.8019
probe	-10.8029
decompose	-10.8032
Post	-10.8036
photo	-10.8038
gx	-10.8047
ju	-10.8047
single	-10.8048
provision	-10.8048
trips	-10.8048
BV	-10.8051
tail	-10.8053
SYMBOL	-10.8056
zabb	-10.8058
MM	-10.8064
calib	-10.8066
poll	-10.8067
ARM	-10.8071
rounds	-10.8075
diffuse	-10.8091
cdelt	-10.8093
selections	-10.8094
plen	-10.8096
ended	-10.8103
quantile	-10.8108
paragraphs	-10.8109
aximum	-10.8111
reject	-10.8114
erial	-10.8122
DL	-10.8122
mda	-10.8125
gu	-10.8126
MAIN	-10.8128
SPACE	-10.8131
Elastic	-10.8134
ata	-10.8136
regulariz	-10.8138
setp	-10.8141
ontology	-10.8159
PROPERT	-10.8159
Alias	-10.8159
lamb	-10.816
authn	-10.8164
binds	-10.8166
vlc	-10.8166
submissions	-10.8168
locks	-10.8176
ITEM	-10.8177
mystr	-10.8178
lgb	-10.8183
cnx	-10.8183
symmetry	-10.8185
centroid	-10.8185
ROW	-10.8201
RATE	-10.821
Df	-10.8213
ious	-10.8214
sex	-10.8217
synset	-10.8218
iat	-10.8219
FIR	-10.8219
pacing	-10.8224
TREE	-10.8236
metadata	-10.8237
horizontal	-10.8238
navigat	-10.8238
winfo	-10.8243
Signal	-10.8244
traj	-10.8245
XX	-10.8247
oil	-10.825
DAY	-10.8251
ENOE	-10.8252
easy	-10.8253
logz	-10.8261
CAP	-10.8263
masse	-10.827
lum	-10.8277
xz	-10.8277
NC	-10.8283
fns	-10.8286
BEL	-10.8289
RI	-10.829
south	-10.8304
Dist	-10.8307
xxx	-10.8307
todo	-10.8313
LAT	-10.8315
crit	-10.8318
cwl	-10.8319
custom	-10.8319
gdal	-10.832
AU	-10.8326
Map	-10.8331
Gra	-10.8332
pie	-10.8343
reason	-10.8343
ARG	-10.8353
globalt	-10.8356
emo	-10.8357
border	-10.8359
Hex	-10.8364
indicat	-10.8368
universal	-10.837
MATCH	-10.837
bitcoin	-10.8371
phased	-10.8372
lags	-10.8374
feature	-10.8375
counter	-10.8378
ACT	-10.8378
har	-10.8381
exons	-10.8384
moments	-10.8385
subdir	-10.8388
dialog	-10.8397
stamp	-10.8399
yo	-10.8401
tds	-10.8422
Schedule	-10.8423
social	-10.8423
Rest	-10.8423
reload	-10.8423
ium	-10.843
Detail	-10.8437
orig	-10.8438
analyt	-10.8445
RESOURCE	-10.8451
platforms	-10.8455
hold	-10.8458
sphere	-10.8465
succeed	-10.8476
consider	-10.8476
Interactive	-10.8477
sandbox	-10.8477
scrapy	-10.8477
HTMLParse	-10.8481
very	-10.8483
rk	-10.8496
gte	-10.85
zeta	-10.85
neg	-10.8501
SELECT	-10.8503
SESSION	-10.8503
smaller	-10.8508
figure	-10.851
ways	-10.851
determin	-10.8511
chroot	-10.8514
rets	-10.8517
beg	-10.8521
EE	-10.8523
distribute	-10.8527
ENTRY	-10.853
Partition	-10.853
epilog	-10.853
estimate	-10.8532
Fault	-10.8533
DOC	-10.854
rq	-10.854
upload	-10.8547
domain	-10.8552
holes	-10.8552
REGISTR	-10.8557
After	-10.8557
alternative	-10.8558
wkt	-10.8558
vbox	-10.8562
vel	-10.8562
declaration	-10.8566
ren	-10.8573
jun	-10.8578
perm	-10.8581
WORK	-10.8584
certificate	-10.8584
PARAMETER	-10.8584
cannot	-10.8586
Page	-10.8587
Retry	-10.8588
mechani	-10.8588
hypo	-10.8589
fu	-10.8593
eat	-10.8598
divid	-10.8598
bypass	-10.8604
lso	-10.8606
interest	-10.8606
message	-10.8607
circle	-10.8608
isclose	-10.8614
admin	-10.8623
queued	-10.8623
deb	-10.863
semi	-10.8632
intersection	-10.8633
ku	-10.8635
ust	-10.8639
xmlrpc	-10.864
dms	-10.8642
ook	-10.8643
anonymous	-10.8645
spacer	-10.8649
walk	-10.8652
replicas	-10.8656
covered	-10.8656
Get	-10.866
COLUMN	-10.8666
enage	-10.8667
dendro	-10.8667
ambiguous	-10.867
tabulate	-10.867
EQ	-10.8673
audio	-10.868
limited	-10.8697
ux	-10.8699
triggers	-10.8702
cropp	-10.8703
design	-10.8704
delim	-10.8709
pcolor	-10.8716
activat	-10.8717
PAR	-10.872
enter	-10.872
shuffle	-10.8721
handshake	-10.8721
chan	-10.8727
matchobj	-10.8733
overlapping	-10.8749
scheme	-10.8751
oom	-10.8753
numerical	-10.8754
socks	-10.8755
ifos	-10.8756
mpstat	-10.8757
GE	-10.8764
material	-10.8767
Over	-10.8769
renderer	-10.877
Port	-10.8772
SYSTEM	-10.8776
LOCATION	-10.8776
PROTO	-10.8778
radi	-10.8782
RTS	-10.8783
gcs	-10.8784
pkcs	-10.8784
xlsx	-10.8784
unique	-10.8788
jo	-10.8788
etter	-10.8792
setlocal	-10.8795
Pol	-10.88
unzip	-10.8803
FLOAT	-10.8804
SAMPLE	-10.8804
Ref	-10.8807
EV	-10.8808
eight	-10.8809
hunk	-10.8813
mimetype	-10.8823
supplie	-10.8832
TEMP	-10.8832
spanning	-10.8832
heat	-10.8837
shown	-10.884
Must	-10.8842
Ti	-10.8843
idge	-10.8851
LD	-10.8858
scratch	-10.8859
Function	-10.8861
validit	-10.8861
broken	-10.8862
SEC	-10.887
location	-10.887
Label	-10.887
PART	-10.8878
hess	-10.8879
sqs	-10.8879
Lock	-10.8882
kinds	-10.8884
CHANNEL	-10.8887
COMPLETE	-10.8887
hier	-10.8889
forecast	-10.8889
chat	-10.889
variance	-10.889
nsible	-10.8892
tube	-10.8896
clone	-10.89
sdp	-10.8903
system	-10.8907
bk	-10.8908
Cons	-10.8908
cra	-10.8913
osc	-10.8914
Sparse	-10.8914
raft	-10.8918
feat	-10.8925
ete	-10.8927
omim	-10.893
currence	-10.893
prompt	-10.8931
ott	-10.8931
nano	-10.8934
goid	-10.8937
SUFFIX	-10.8943
develop	-10.8943
MT	-10.895
charge	-10.8954
story	-10.8956
cu	-10.8956
TRANS	-10.8959
aj	-10.8964
activities	-10.8972
clazz	-10.8972
rvs	-10.8972
SCOPE	-10.8972
pwm	-10.8976
bundles	-10.898
NOTE	-10.8983
Translat	-10.8985
rts	-10.8986
fund	-10.8991
synonym	-10.8993
INTERN	-10.8996
UC	-10.8996
pickled	-10.8997
xor	-10.8998
primitive	-10.9
compli	-10.9001
Track	-10.9003
ami	-10.9004
pointer	-10.9007
toolkit	-10.9008
Mat	-10.9011
DEF	-10.9021
way	-10.9028
consistenc	-10.9028
opc	-10.903
symm	-10.9035
minimal	-10.9037
postfix	-10.9039
wo	-10.9054
Watch	-10.9057
kpc	-10.9085
OFFSET	-10.9086
mutual	-10.9087
VS	-10.9099
CAN	-10.9104
fails	-10.9104
wmi	-10.9108
atexi	-10.9112
ADDRESS	-10.9114
Chrome	-10.9114
omitt	-10.9114
iff	-10.9117
Arr	-10.9138
Extend	-10.914
ago	-10.9142
hourly	-10.9143
revision	-10.9143
Loss	-10.9145
CN	-10.9147
PCA	-10.9148
cmdarg	-10.915
option	-10.9152
ado	-10.9155
Restrict	-10.9157
ampl	-10.9162
kb	-10.9163
Thread	-10.9164
moved	-10.9166
getframe	-10.9171
detections	-10.9176
correlation	-10.918
storage	-10.918
angular	-10.9193
Ind	-10.9198
Instance	-10.92
Learn	-10.92
finder	-10.9201
leg	-10.9206
claim	-10.9228
Install	-10.9229
could	-10.9229
reddit	-10.9229
Number	-10.9229
atern	-10.9232
ory	-10.9235
eigh	-10.924
ori	-10.9247
rong	-10.9248
foot	-10.925
monotonic	-10.9258
Shared	-10.9258
refer	-10.9264
Obs	-10.9271
application	-10.9273
ih	-10.9274
datetimes	-10.9285
ANALYSIS	-10.9287
omething	-10.9296
equal	-10.9298
dens	-10.93
ovs	-10.9304
eck	-10.931
SOCKET	-10.9311
slid	-10.9313
FONT	-10.9317
dhcp	-10.9317
crash	-10.9318
gar	-10.9318
indicators	-10.9319
control	-10.932
synchronous	-10.9329
bfd	-10.9336
crt	-10.9339
identifie	-10.9343
Finish	-10.9345
specimen	-10.9345
simplex	-10.9351
AIN	-10.9353
ulong	-10.9354
eta	-10.9357
dem	-10.9364
Ellipsi	-10.9365
BB	-10.9369
stopword	-10.9369
SECTION	-10.9375
Scroll	-10.9375
animate	-10.9377
endline	-10.9381
qua	-10.9381
kal	-10.9382
Alt	-10.9389
fb	-10.9392
prefixed	-10.9396
macs	-10.9398
zen	-10.9403
Docker	-10.9404
ock	-10.9408
impl	-10.9408
XMLParse	-10.9409
WP	-10.941
snap	-10.9414
applic	-10.9418
ATOR	-10.9424
tex	-10.9428
hx	-10.9431
mtx	-10.9432
PDF	-10.9433
FIG	-10.9433
privilege	-10.9433
RANGE	-10.9434
ARGS	-10.9434
xg	-10.9435
STD	-10.9436
still	-10.9439
UDF	-10.9443
lchemy	-10.9447
suffix	-10.9449
FLOW	-10.9455
dynamo	-10.9463
explode	-10.9463
apache	-10.9463
dimensional	-10.9463
msgpack	-10.9466
rtr	-10.9466
ndb	-10.9483
indicate	-10.9485
Edge	-10.9494
CPE	-10.95
issubd	-10.9503
ideal	-10.9504
older	-10.9513
bams	-10.9513
exce	-10.9515
why	-10.9516
blobs	-10.9518
lli	-10.952
flist	-10.9522
sensitivit	-10.9523
chroma	-10.9523
IDS	-10.9524
CRC	-10.9529
datapath	-10.9547
Low	-10.9552
sales	-10.9552
chart	-10.9554
initializ	-10.9557
PAN	-10.9557
elf	-10.9562
onoi	-10.9563
exports	-10.9564
pdata	-10.9565
traits	-10.9568
aws	-10.9569
ACK	-10.957
kc	-10.9572
concurrenc	-10.9575
FO	-10.9577
nnz	-10.958
ong	-10.958
kube	-10.9581
postgres	-10.9582
pillar	-10.9589
constrain	-10.9589
digital	-10.9595
REV	-10.9597
wrapper	-10.9599
joint	-10.9599
frag	-10.9607
PROV	-10.9607
SIGTERM	-10.9613
deploy	-10.9616
tocs	-10.9621
orac	-10.9634
openssl	-10.9635
memcache	-10.9635
ogr	-10.9641
friends	-10.9642
CONFIGURATION	-10.9643
capture	-10.9649
ath	-10.9657
BYTE	-10.9657
EIGHT	-10.9669
permanent	-10.9673
SQUI	-10.9673
dropped	-10.9673
STACK	-10.9674
plotly	-10.9675
Paths	-10.968
unparse	-10.968
hdu	-10.9683
FMT	-10.9684
pubsub	-10.9685
SIGN	-10.969
VIEW	-10.9703
ddof	-10.971
WIN	-10.9724
tsk	-10.9729
pkl	-10.9732
pul	-10.9733
olyaxon	-10.9733
mismatch	-10.9734
ame	-10.9743
men	-10.9745
pdb	-10.9747
legend	-10.9749
Thr	-10.9749
fname	-10.9756
lte	-10.9758
CONNECT	-10.9764
Expir	-10.9764
SEARCH	-10.9764
mandator	-10.9765
vxv	-10.9771
EXP	-10.9773
INTER	-10.9774
boost	-10.9776
standardize	-10.9779
zo	-10.9781
gpio	-10.9795
parallelize	-10.9796
Prett	-10.9797
hay	-10.9798
MY	-10.9801
caches	-10.9802
FE	-10.9802
package	-10.9803
coef	-10.9811
Xt	-10.9819
contained	-10.982
prot	-10.982
KMIP	-10.9825
instr	-10.983
BAR	-10.9835
topk	-10.9837
retr	-10.9838
aug	-10.9838
uck	-10.9838
memmap	-10.9842
linewidth	-10.9843
lgc	-10.9849
QUEUE	-10.9856
difference	-10.9856
ROLE	-10.9857
dont	-10.986
analog	-10.9865
chn	-10.9865
twis	-10.987
SPI	-10.9872
regexe	-10.9872
Document	-10.9887
phrase	-10.9887
fuzz	-10.9895
shortest	-10.9896
videos	-10.9897
bod	-10.99
encoder	-10.9901
pure	-10.9906
percentiles	-10.991
trim	-10.991
DEN	-10.9913
abel	-10.9916
padx	-10.9917
atellite	-10.9918
hould	-10.9918
Chain	-10.9918
UST	-10.9919
nets	-10.9925
miles	-10.9931
mpfr	-10.9934
descend	-10.994
For	-10.9945
sqla	-10.9945
increment	-10.995
mot	-10.9954
cpu	-10.9956
KEYWORD	-10.9957
lider	-10.9963
structured	-10.9965
numobj	-10.9973
IDENTIFIER	-10.998
while	-10.9981
formation	-10.9985
Th	-10.9985
RES	-10.9987
iplot	-10.9988
solver	-10.9989
autoscale	-10.9991
protein	-10.9992
libcloud	-10.9995
bunch	-10.9996
Pooling	-10.9998
isna	-10.9999
viz	-11.0001
descendan	-11.0001
sanitized	-11.0002
mobj	-11.0011
MAGIC	-11.0011
Sequential	-11.0011
Dummy	-11.0011
humid	-11.0012
nbest	-11.0018
role	-11.0025
LP	-11.0034
HE	-11.0039
POSITION	-11.0043
Transforme	-11.0043
Url	-11.0043
kept	-11.0045
usable	-11.005
unch	-11.0054
Formatt	-11.0057
resp	-11.0058
Visit	-11.0065
samps	-11.0067
Vectorize	-11.0068
lost	-11.0073
scroll	-11.0086
Finde	-11.0086
Syn	-11.0087
xtraction	-11.0091
isolat	-11.0098
LOGIN	-11.0098
delimit	-11.0099
puts	-11.0105
splunk	-11.0106
hantom	-11.0106
centric	-11.0106
STORE	-11.0108
Comp	-11.0112
targ	-11.0116
xyz	-11.0117
ITE	-11.0117
ather	-11.0123
urlsplit	-11.0125
sell	-11.0126
contribut	-11.0137
unexpected	-11.0137
Train	-11.0139
kron	-11.014
termi	-11.0143
modalit	-11.0144
internals	-11.0145
dscr	-11.0147
iterator	-11.0148
nodata	-11.0148
Too	-11.0154
compress	-11.0159
INTERVAL	-11.0169
positives	-11.017
sectors	-11.0172
lam	-11.0175
CONTROL	-11.0175
mito	-11.0181
pep	-11.0182
btc	-11.0187
excl	-11.0187
occup	-11.0191
collate	-11.0195
bios	-11.0196
structs	-11.02
aggregation	-11.0201
correction	-11.0201
PROXY	-11.0202
galax	-11.0203
Er	-11.0203
receiver	-11.0206
padding	-11.0207
Plot	-11.0208
branch	-11.0211
Geo	-11.0215
anchore	-11.0219
optional	-11.022
anity	-11.0224
mic	-11.023
deriv	-11.0233
fermi	-11.0233
solr	-11.0242
dts	-11.025
vargs	-11.0252
siz	-11.0252
recognize	-11.0265
throttl	-11.0265
routine	-11.0265
partial	-11.0268
sound	-11.0273
warn	-11.0277
elt	-11.0279
lsb	-11.0283
oper	-11.0283
grpc	-11.0286
GO	-11.029
even	-11.0292
WHITE	-11.0297
EXTENSION	-11.0297
retinotop	-11.0297
triu	-11.0297
Plain	-11.0297
wc	-11.0301
FORM	-11.0303
nex	-11.0307
docgraph	-11.0307
fy	-11.031
LO	-11.0328
anomal	-11.0329
oxi	-11.0334
geojson	-11.0338
Sign	-11.0341
shares	-11.0355
Limit	-11.0364
brain	-11.0364
terminat	-11.0365
zoom	-11.0366
Datetime	-11.0373
ticklabel	-11.038
blo	-11.0382
App	-11.0387
olynomial	-11.039
individual	-11.0394
SKIP	-11.0394
ingleton	-11.0403
Resource	-11.0403
hall	-11.0406
optparse	-11.0421
restart	-11.0425
nonzero	-11.043
aque	-11.0434
nativestr	-11.0441
cnf	-11.0447
going	-11.045
kms	-11.0457
checksum	-11.0458
Tokenize	-11.0459
blank	-11.0459
KD	-11.0463
rrup	-11.0463
Com	-11.0463
Bar	-11.0465
password	-11.0465
coord	-11.0469
pod	-11.0473
HDFStor	-11.0477
ough	-11.0479
BIN	-11.0479
MIME	-11.048
DEC	-11.0486
Dimension	-11.0492
Focus	-11.0492
integrity	-11.0495
thermal	-11.05
jw	-11.0512
ROUND	-11.0513
EXIT	-11.0523
Corp	-11.0524
MONTH	-11.0525
speech	-11.0525
yellow	-11.0525
fwdl	-11.0527
NET	-11.053
MX	-11.0535
plates	-11.0537
adb	-11.0537
war	-11.0539
PARSER	-11.054
prep	-11.0543
kde	-11.0547
onerror	-11.0548
tails	-11.0554
DETAIL	-11.0558
Google	-11.0558
clobber	-11.0558
participants	-11.0558
precede	-11.056
HIGH	-11.0561
justif	-11.0568
jet	-11.057
LAN	-11.0572
available	-11.0573
matcher	-11.0578
pam	-11.0582
HELP	-11.0592
laplac	-11.0595
Ni	-11.0596
imms	-11.0604
Mi	-11.0606
lnum	-11.0613
Horizontal	-11.0624
gmt	-11.0626
Excel	-11.063
Dec	-11.0634
slugif	-11.0638
tops	-11.064
GIT	-11.0644
Conc	-11.0645
naming	-11.0647
marshal	-11.065
stor	-11.0656
EF	-11.0657
earlie	-11.0658
PACKAGE	-11.0658
Embed	-11.0658
Capabilit	-11.0658
interpret	-11.0658
axh	-11.066
INSTALLE	-11.066
gatk	-11.0661
Compile	-11.0664
offer	-11.0666
Boto	-11.0666
coin	-11.0667
urlpattern	-11.067
action	-11.0677
fka	-11.0681
checking	-11.0685
BUTTON	-11.0691
Ar	-11.0693
vrs	-11.0695
bat	-11.0697
HTTPS	-11.0699
CERT	-11.0704
Later	-11.0718
Retrie	-11.0719
melt	-11.072
addstr	-11.072
hing	-11.0722
contourf	-11.0722
appropriate	-11.0725
colours	-11.0725
major	-11.0725
DOMAIN	-11.0725
Cross	-11.0727
DNA	-11.0727
music	-11.0727
namedb	-11.0728
rounding	-11.0733
colname	-11.074
renew	-11.0747
UB	-11.0751
BL	-11.0756
wake	-11.0758
license	-11.0758
Complete	-11.0759
Config	-11.0759
xmlstr	-11.0761
REQ	-11.0761
intercept	-11.0762
cmap	-11.0763
integrat	-11.0765
avi	-11.0771
spectral	-11.0773
quantit	-11.0779
Sta	-11.078
scatter	-11.0792
outer	-11.0794
hypothes	-11.0795
Refresh	-11.0795
ITER	-11.0796
remember	-11.0799
dj	-11.08
crval	-11.081
eig	-11.0813
UIn	-11.0813
Vol	-11.0816
STEP	-11.0819
wildcard	-11.0826
double	-11.0826
promote	-11.0826
prim	-11.0829
bic	-11.084
fro	-11.0845
RDD	-11.085
rfft	-11.085
ecc	-11.0852
cors	-11.0855
monitors	-11.0855
orient	-11.0855
OVER	-11.0856
RUNN	-11.0857
Sec	-11.0858
boolean	-11.086
highlight	-11.0861
MENU	-11.0861
GENER	-11.0862
vir	-11.0862
midi	-11.0862
Final	-11.0862
upgrade	-11.0863
meths	-11.0867
jango	-11.0868
funct	-11.0876
ocks	-11.0878
xb	-11.0878
lsp	-11.0886
millis	-11.0888
MANAGER	-11.0894
RETRY	-11.0894
WITH	-11.0894
bottle	-11.0895
preamb	-11.0895
Parse	-11.0896
olation	-11.0902
olar	-11.0911
extrem	-11.0913
fcs	-11.0919
submitt	-11.0924
BUILD	-11.0928
Frequenc	-11.0928
Success	-11.0928
Seconds	-11.0928
suspend	-11.0928
URIRef	-11.0928
kiv	-11.0933
comput	-11.0938
nothing	-11.0941
ensemble	-11.0944
tory	-11.0946
uniques	-11.095
emu	-11.0958
customize	-11.0962
perfect	-11.0963
Verify	-11.0963
earth	-11.0963
transpose	-11.0964
helpm	-11.0971
canon	-11.0981
AO	-11.0985
FR	-11.0994
orbit	-11.0996
increas	-11.0997
fourier	-11.0998
LAS	-11.1003
cdf	-11.1004
relax	-11.1007
Lists	-11.1008
nist	-11.1009
nch	-11.1012
wall	-11.1014
vlan	-11.1019
fall	-11.103
EPOCH	-11.1032
entire	-11.1032
Modifie	-11.1033
lready	-11.1033
juice	-11.1034
UINT	-11.1037
usual	-11.1041
Specific	-11.1043
agenc	-11.1047
jol	-11.1059
ERO	-11.1063
Receiv	-11.1067
ruby	-11.1067
artist	-11.1068
transmit	-11.1071
trl	-11.1075
LONG	-11.1077
normalise	-11.1083
eurite	-11.1097
FEATURE	-11.1101
signs	-11.1101
Table	-11.1102
pressed	-11.1103
Pop	-11.1106
dae	-11.1116
yml	-11.1118
fmax	-11.1128
ean	-11.113
holiday	-11.1136
ko	-11.114
zp	-11.114
irsb	-11.1141
coll	-11.1146
lite	-11.1148
FFT	-11.1153
arccos	-11.1154
kdim	-11.1158
SRC	-11.1162
kmean	-11.1171
ustr	-11.1172
convex	-11.1175
pdu	-11.1181
cib	-11.1182
Rat	-11.1195
PROFILE	-11.1197
pay	-11.1208
equi	-11.121
latenc	-11.1212
Serializ	-11.1215
BR	-11.1216
REST	-11.1218
TY	-11.122
INIT	-11.1227
omposition	-11.1229
pause	-11.123
IDX	-11.1235
wrapp	-11.1238
ivity	-11.1241
significant	-11.1242
TAGS	-11.1245
weekday	-11.1251
rez	-11.1253
fpars	-11.1262
TRA	-11.1268
spectra	-11.1269
Additional	-11.1277
simul	-11.1288
atum	-11.1289
sqrt	-11.129
RGB	-11.1292
ATIVE	-11.1293
expos	-11.1295
PARSE	-11.1299
RM	-11.1302
mhc	-11.1302
battery	-11.1313
ratings	-11.1313
CRITIC	-11.1318
rpc	-11.132
global	-11.1321
ecision	-11.1322
Synapse	-11.1327
ico	-11.1327
newer	-11.1329
ball	-11.1334
BGP	-11.1336
stale	-11.134
togethe	-11.1341
tps	-11.1352
scrape	-11.1355
TK	-11.1357
ifaces	-11.1358
router	-11.1358
Wor	-11.1359
pady	-11.1363
fq	-11.1368
Cls	-11.1374
conversion	-11.1379
login	-11.1382
Shift	-11.1385
MPC	-11.139
adius	-11.1392
staging	-11.1394
ismethod	-11.1406
soft	-11.1411
workflow	-11.1413
ogram	-11.1415
reshape	-11.1417
ANSI	-11.1417
Parser	-11.142
classifier	-11.1421
rcdir	-11.1425
canonicalize	-11.1426
Day	-11.1428
ultipart	-11.1434
pch	-11.1438
bug	-11.1439
magcol	-11.1444
collect	-11.1444
legal	-11.1444
csi	-11.1445
lnk	-11.1447
GRAY	-11.1457
Complex	-11.1457
trading	-11.1458
derivative	-11.1458
SIGNAL	-11.1458
canner	-11.1463
games	-11.1465
DES	-11.1469
Samples	-11.147
goto	-11.1476
tiled	-11.1477
pfp	-11.1484
Test	-11.1493
Strict	-11.1493
terminal	-11.1493
violat	-11.15
twee	-11.1501
resolver	-11.1504
checkplot	-11.1508
OTH	-11.1516
latent	-11.1519
flex	-11.152
SVC	-11.1522
MISSING	-11.1529
larger	-11.1529
Uniform	-11.153
sniff	-11.1531
skel	-11.1535
prod	-11.1537
cql	-11.1541
COM	-11.1541
brackets	-11.1555
Car	-11.1557
Import	-11.1558
adv	-11.1565
DISABLE	-11.1566
ecdsa	-11.1566
eopatch	-11.1566
fwhm	-11.1566
rings	-11.1568
xdr	-11.157
combos	-11.157
USERNAME	-11.1574
Open	-11.1575
applie	-11.1583
ttk	-11.1584
pipeline	-11.16
tap	-11.16
Register	-11.1602
LDAP	-11.1603
invok	-11.1604
suggestions	-11.1605
fish	-11.1609
Def	-11.161
cntr	-11.1614
seqres	-11.1619
HW	-11.162
communit	-11.1625
consumer	-11.1626
circuit	-11.1633
analyz	-11.1639
targeted	-11.164
jam	-11.164
izip	-11.1641
Quart	-11.1641
mock	-11.1643
exposure	-11.1645
disconnect	-11.1648
Fake	-11.1655
homo	-11.1656
pooling	-11.1657
peptides	-11.1667
integr	-11.1668
wts	-11.1673
passive	-11.1676
coalesce	-11.1677
GW	-11.1677
CODES	-11.1681
Load	-11.1683
Self	-11.1684
hub	-11.1686
ANCE	-11.1687
ALLOW	-11.1694
sect	-11.1698
mpars	-11.1699
transparent	-11.1699
rtl	-11.1701
Sens	-11.1702
aster	-11.1704
rotation	-11.171
operating	-11.1713
currentl	-11.1714
alert	-11.1724
makedir	-11.1725
msvc	-11.1725
shapefile	-11.1748
Hello	-11.175
ICON	-11.1752
predictiv	-11.1756
transformation	-11.1757
glo	-11.1763
MARK	-11.1773
mug	-11.1774
lipboard	-11.1779
rain	-11.1779
doesn	-11.1781
Accept	-11.1788
mof	-11.1788
spheric	-11.179
vrt	-11.1793
iterkey	-11.1794
SEP	-11.1794
Info	-11.18
irradia	-11.1804
BOUND	-11.1804
facts	-11.1805
uncompressed	-11.1807
bcrypt	-11.1813
signal	-11.1814
bol	-11.1819
clust	-11.182
sentry	-11.182
mbi	-11.182
bigge	-11.1821
serv	-11.1821
marc	-11.1823
ARRAY	-11.1825
Branch	-11.1825
RECORD	-11.1825
blast	-11.1827
AGENT	-11.183
aux	-11.183
Mime	-11.183
variation	-11.1835
borders	-11.1837
ham	-11.1837
Dict	-11.1841
acq	-11.1841
Bitma	-11.1844
mul	-11.1852
hn	-11.1854
BIT	-11.1862
SIGNATURE	-11.1863
ince	-11.1863
codons	-11.1864
EEXIST	-11.1871
person	-11.1872
intra	-11.1877
vts	-11.1878
mir	-11.1884
lclist	-11.1886
active	-11.189
neuron	-11.19
HDU	-11.1901
atr	-11.1901
Solver	-11.1901
HERE	-11.1902
pur	-11.191
Rad	-11.1916
SQLA	-11.1923
Interpolat	-11.1928
inlist	-11.1934
standalone	-11.1938
gw	-11.1938
HOME	-11.194
pydot	-11.1948
tfidf	-11.195
Lower	-11.1953
imax	-11.1955
dsp	-11.1959
zap	-11.1962
pip	-11.1963
mismatches	-11.1964
product	-11.1967
firstline	-11.1972
Aw	-11.1973
GREEN	-11.1976
slitlet	-11.1977
SONDecode	-11.1977
DIFF	-11.1977
discr	-11.1985
mdb	-11.1992
omi	-11.1993
OIN	-11.1995
Range	-11.1995
WM	-11.1997
amfile	-11.2
ALLOWE	-11.2002
allet	-11.2007
alter	-11.2009
PUBLIC	-11.2014
Optimize	-11.2014
tidy	-11.2023
Weight	-11.2024
printed	-11.2042
GT	-11.2043
hsm	-11.2052
ELEMENT	-11.2053
friction	-11.2053
UDP	-11.2053
fortran	-11.2053
suite	-11.2055
rooms	-11.2056
Vector	-11.206
fcn	-11.2064
bottom	-11.2065
checker	-11.2072
WT	-11.2086
mutat	-11.2087
Convolution	-11.2091
neighbour	-11.2091
DLL	-11.2092
augment	-11.2093
BOX	-11.2094
genotype	-11.2095
pull	-11.2097
rsr	-11.2099
indexer	-11.21
Cli	-11.2104
ogistic	-11.2105
MIMET	-11.2114
Para	-11.2116
ANTI	-11.2122
mmax	-11.2128
student	-11.213
metric	-11.213
ROUTE	-11.2132
pdx	-11.2136
Ui	-11.2136
playing	-11.2137
deny	-11.2137
colon	-11.2138
assertion	-11.2138
sbj	-11.2143
HEAD	-11.2148
CDR	-11.2153
Late	-11.2154
ddl	-11.2156
kpars	-11.2165
mplot	-11.2167
Doc	-11.2168
Lazy	-11.2169
epsilon	-11.2169
jupyte	-11.2169
shake	-11.2171
anno	-11.2176
callsig	-11.2177
district	-11.2179
distributed	-11.2187
clc	-11.2187
Tri	-11.2195
csu	-11.2204
vert	-11.2206
subsequent	-11.2207
potential	-11.2207
inertia	-11.2207
Network	-11.221
aniso	-11.221
serializable	-11.2211
kimage	-11.2217
nacl	-11.2232
fai	-11.2238
hyd	-11.2238
variant	-11.2241
uality	-11.2243
CHOICE	-11.2247
NETWORK	-11.2247
thisbin	-11.2248
Host	-11.2249
profil	-11.2249
noisy	-11.2256
templ	-11.2256
patial	-11.2262
verb	-11.2263
para	-11.2269
Exc	-11.2273
vfs	-11.2276
BITS	-11.2284
CATEGOR	-11.2286
Setup	-11.2286
Delete	-11.2288
Format	-11.2291
SYS	-11.2296
paper	-11.2297
terday	-11.2299
payer	-11.23
aiden	-11.23
getlist	-11.2301
ift	-11.2302
cpd	-11.2308
exog	-11.2308
Icon	-11.2309
hit	-11.2311
leaf	-11.2318
retry	-11.2321
LH	-11.2322
predecess	-11.2325
public	-11.2325
telnet	-11.2325
mdf	-11.2325
COLORS	-11.2328
bayes	-11.2328
nmr	-11.2331
recovered	-11.2333
kls	-11.2336
GEN	-11.2345
endall	-11.2349
expr	-11.2353
white	-11.2354
Your	-11.2357
moc	-11.2359
themes	-11.236
thro	-11.2364
exhaust	-11.2365
trade	-11.2367
Pack	-11.2368
reading	-11.2369
semilog	-11.2371
ENDING	-11.2379
lift	-11.2379
Wrapper	-11.2382
FIELDNAME	-11.2384
veto	-11.2388
Store	-11.2389
bur	-11.2401
STATES	-11.2404
CONTAINER	-11.2404
Deprecat	-11.2407
fld	-11.2414
pins	-11.2416
brok	-11.2419
Command	-11.2421
yum	-11.2421
umper	-11.2427
Gas	-11.2435
POP	-11.2442
cust	-11.2442
Assoc	-11.2445
MR	-11.2445
Famil	-11.2445
bou	-11.2447
browse	-11.2449
personal	-11.2452
rimary	-11.2462
onset	-11.2465
forget	-11.2469
nold	-11.2475
actual	-11.2478
DTYPE	-11.2478
Verbos	-11.2484
granularit	-11.2484
chirp	-11.2484
Remove	-11.2484
Deni	-11.2485
roman	-11.2486
discard	-11.2487
emphasi	-11.2493
tear	-11.2495
oids	-11.2496
qarg	-11.2504
xmatch	-11.2509
Neighbor	-11.2524
METRIC	-11.2524
destinations	-11.2524
Hash	-11.2525
CBC	-11.2526
Index	-11.2527
cle	-11.2528
PDU	-11.2534
schedul	-11.2536
SYNC	-11.2537
vld	-11.2551
INC	-11.2555
inh	-11.257
sleep	-11.257
crpix	-11.2572
unitar	-11.2576
game	-11.2578
ortex	-11.2582
nomial	-11.2583
easter	-11.259
rcv	-11.2596
CONNECTION	-11.2603
episode	-11.2605
turbulen	-11.2605
SCALE	-11.2606
Cancell	-11.2607
nym	-11.2607
skew	-11.2607
fake	-11.2614
tipo	-11.2621
ital	-11.2625
imu	-11.2627
treat	-11.2628
oz	-11.2634
lil	-11.2634
tbl	-11.2634
incremental	-11.2645
IFICATION	-11.2646
seasonal	-11.2646
concord	-11.2646
enhance	-11.2646
collapsed	-11.2646
acknowledge	-11.2647
tempera	-11.2652
Inven	-11.2653
placement	-11.2661
Cnst	-11.2662
TOOL	-11.2662
Interface	-11.2663
APPS	-11.2664
lvm	-11.2665
Fun	-11.2669
planar	-11.2671
Normaliz	-11.268
zinfo	-11.2681
PLT	-11.2686
CUSTOM	-11.2687
Statistic	-11.2687
Light	-11.2687
SINGLE	-11.2687
YEAR	-11.2687
pth	-11.2687
EXPAND	-11.2687
SDK	-11.2688
ada	-11.2689
directional	-11.27
Decode	-11.2703
negated	-11.2707
orbidden	-11.2711
oob	-11.2711
suggest	-11.2725
HANDLE	-11.2728
SPLIT	-11.2728
pycbc	-11.2728
bucket	-11.2728
calibrate	-11.2729
ython	-11.2734
blah	-11.2735
xternal	-11.2741
dynamics	-11.2746
clamp	-11.2749
Will	-11.2751
conda	-11.2753
fork	-11.2757
delimiter	-11.2758
wintype	-11.2759
PDB	-11.2761
Symbol	-11.2767
whatever	-11.2769
world	-11.2769
FALSE	-11.277
business	-11.2773
nro	-11.2775
amping	-11.278
Lexe	-11.2781
SUM	-11.2792
MF	-11.2796
EVER	-11.2796
adjustment	-11.28
Logic	-11.2807
mess	-11.2808
fault	-11.281
efficienc	-11.281
vswitch	-11.2813
vsan	-11.2817
locales	-11.2819
blur	-11.282
latch	-11.2821
kx	-11.2821
Plu	-11.2824
Mode	-11.2836
getsource	-11.2838
daemon	-11.284
FUNC	-11.2841
percent	-11.2846
refine	-11.285
PAT	-11.2851
TRUE	-11.2852
FULL	-11.2852
EXTEND	-11.2854
voice	-11.2856
suit	-11.2859
Strateg	-11.2861
centre	-11.2872
walker	-11.2873
May	-11.2888
WARN	-11.2891
condition	-11.2892
metabolite	-11.2893
sufficient	-11.2893
mirror	-11.2893
special	-11.2901
ptc	-11.2902
multiplex	-11.2903
interval	-11.2905
lperf	-11.2908
priv	-11.2911
Ntp	-11.2916
iagram	-11.2922
startup	-11.2925
numeric	-11.2926
vac	-11.2928
unravel	-11.293
GRAPH	-11.2935
Deriv	-11.2935
Upper	-11.2936
Manage	-11.2936
viscosit	-11.2937
Radio	-11.2939
concepts	-11.2939
Direct	-11.2939
acion	-11.2941
Rules	-11.2948
quil	-11.2952
CAT	-11.2952
guid	-11.2957
efore	-11.2958
Lo	-11.2959
give	-11.2967
member	-11.2969
checkpoint	-11.2972
Location	-11.2974
pseudo	-11.2977
Cache	-11.2981
magseries	-11.2981
bak	-11.2983
TION	-11.2996
assoc	-11.2997
bert	-11.3001
tanh	-11.3005
regex	-11.3014
hole	-11.3017
REMOTE	-11.3019
identical	-11.3019
robust	-11.3019
Viscosit	-11.3019
KIND	-11.302
caching	-11.302
ASC	-11.303
hbox	-11.3032
rng	-11.3039
Prop	-11.3041
Context	-11.3047
Tools	-11.3057
bag	-11.3061
SUPPRESS	-11.3062
deletion	-11.3062
Hyper	-11.3062
KW	-11.3063
PRIM	-11.3063
likelihood	-11.3064
impact	-11.3064
ush	-11.3071
bedfile	-11.3072
Initializ	-11.3074
grey	-11.3074
checkbox	-11.3092
hel	-11.3092
xlw	-11.3093
iei	-11.3095
cam	-11.3096
appa	-11.3098
replace	-11.3099
Template	-11.3104
BUF	-11.3105
encrypt	-11.3107
refere	-11.3112
fileinfo	-11.3112
cutoff	-11.3114
regress	-11.3117
METHODS	-11.3119
COLS	-11.313
Space	-11.313
netconf	-11.3131
suf	-11.3132
TXT	-11.3137
stdout	-11.3142
epub	-11.3145
SIMPLE	-11.3147
neb	-11.3147
DIGIT	-11.3148
TRACE	-11.3148
CARD	-11.315
xsl	-11.3156
THE	-11.3165
iu	-11.3173
schedule	-11.3181
STAT	-11.3182
Hierarch	-11.319
ATTR	-11.3192
lot	-11.3197
owners	-11.3205
standing	-11.3206
night	-11.3207
iangle	-11.321
slip	-11.3213
bleu	-11.3216
Attr	-11.322
xlim	-11.3224
classification	-11.3225
surface	-11.3229
neutron	-11.3233
ACCEPT	-11.3233
greet	-11.3233
EXECUT	-11.3234
Mesh	-11.3235
gain	-11.3243
BGR	-11.3249
Edit	-11.3259
insensitive	-11.326
Form	-11.3267
REFERENCE	-11.3276
chromosome	-11.3276
CENTER	-11.3276
COOKIE	-11.3276
gateway	-11.3276
little	-11.3276
DEFLATE	-11.3276
Cookie	-11.3276
prefixlen	-11.3287
mnt	-11.3295
ndmin	-11.3297
WCS	-11.3297
PACK	-11.3301
dtraj	-11.3302
fam	-11.3302
Wel	-11.3314
oldest	-11.3314
rdv	-11.3316
Same	-11.3324
epd	-11.3329
xapi	-11.3331
executable	-11.3336
EXEC	-11.3351
Mapp	-11.3352
deliver	-11.3353
Signed	-11.336
Pattern	-11.3363
SCHEME	-11.3363
Vertical	-11.3363
obtain	-11.3363
AMQP	-11.3363
Layer	-11.3364
Encod	-11.3368
gtfs	-11.3377
GATE	-11.3383
tofile	-11.3392
inning	-11.3392
Position	-11.3407
repetiti	-11.3407
ESCAPE	-11.3407
Exceed	-11.3407
EVP	-11.3409
occur	-11.341
pattern	-11.3413
four	-11.3417
lineno	-11.3418
HKEY	-11.3421
DESC	-11.3429
neo	-11.343
associations	-11.3451
lattrib	-11.3451
carry	-11.3454
rane	-11.3455
sinks	-11.346
TRI	-11.3465
GPIO	-11.3468
cands	-11.3473
greed	-11.3474
who	-11.3491
REGISTER	-11.3496
MEMORY	-11.3496
euclidean	-11.3496
Source	-11.3496
backbone	-11.3496
PKCS	-11.3496
bpmn	-11.3496
federat	-11.3497
xdate	-11.3499
Countr	-11.35
important	-11.3504
DIST	-11.3505
hk	-11.3518
VDI	-11.3523
ubmission	-11.3526
writel	-11.3533
lag	-11.3535
ght	-11.3538
stock	-11.354
PLUGIN	-11.354
WEB	-11.354
paging	-11.3541
resnum	-11.3541
android	-11.3542
clus	-11.3542
ategorical	-11.3572
Up	-11.3579
tomo	-11.3584
broad	-11.3584
Switch	-11.3585
STANDA	-11.3585
Hvap	-11.3585
DOM	-11.3587
bookmarks	-11.3588
heading	-11.3595
amino	-11.3604
genome	-11.3608
mime	-11.3608
CREATED	-11.3609
POLL	-11.3612
vocation	-11.3615
hol	-11.3617
tai	-11.3617
bfs	-11.362
prettif	-11.3629
combobox	-11.3629
geometrie	-11.3629
supply	-11.363
diagnos	-11.363
author	-11.363
neutral	-11.3633
eggs	-11.3636
vdp	-11.3638
described	-11.3639
Define	-11.3641
manifest	-11.3654
Where	-11.3655
Nois	-11.3658
dig	-11.3659
Initial	-11.3663
Contain	-11.3663
odbc	-11.3666
unary	-11.3667
REDIRECT	-11.3672
fhandle	-11.3674
DOUBLE	-11.3675
INDENT	-11.3675
Incom	-11.3675
travers	-11.3675
hdrgos	-11.3675
Overflow	-11.3676
Kit	-11.3676
IMPORT	-11.3677
AUTHOR	-11.3678
UNIX	-11.368
matlab	-11.3687
NER	-11.3687
filesystem	-11.3689
Take	-11.3691
disp	-11.3696
observer	-11.37
omega	-11.3701
msb	-11.3705
eth	-11.3705
eligib	-11.3707
icmp	-11.3709
qsl	-11.3719
Menu	-11.372
RELATION	-11.3722
writestr	-11.3729
Old	-11.3745
dilat	-11.3753
cheb	-11.3762
Generate	-11.3765
sequential	-11.3765
growth	-11.3765
truth	-11.3765
overlay	-11.3765
LAYER	-11.3766
Tabula	-11.3766
money	-11.3767
phasedlc	-11.3768
secrethash	-11.377
euro	-11.3776
sgd	-11.3778
obra	-11.3785
argspec	-11.3788
iml	-11.3803
deactivate	-11.3812
polar	-11.3813
USB	-11.3817
TMP	-11.382
HDF	-11.3821
dedup	-11.3823
sourcepath	-11.383
well	-11.3831
inux	-11.3834
tempdir	-11.3841
grr	-11.3842
magn	-11.3843
hms	-11.3847
trajector	-11.3849
false	-11.3852
DEPTH	-11.3857
Module	-11.3857
FITS	-11.3857
underl	-11.3858
spawn	-11.3858
ACCOUNT	-11.3858
ATT	-11.3863
generate	-11.3865
EDGE	-11.3868
oci	-11.3869
imap	-11.3869
CFUNC	-11.3869
trap	-11.3871
Handle	-11.3871
PID	-11.3872
recon	-11.3873
dtd	-11.3874
Dynam	-11.3874
forbidden	-11.3876
connecting	-11.3901
varname	-11.3902
ORIGIN	-11.3903
Variable	-11.3903
sieve	-11.3903
ADMIN	-11.3907
boo	-11.3911
alform	-11.3925
MPT	-11.3931
Geno	-11.3937
obo	-11.3938
might	-11.3949
Specify	-11.3952
qualit	-11.3953
heappush	-11.3956
aff	-11.3956
realm	-11.396
glw	-11.3962
stet	-11.3965
glet	-11.3965
argnames	-11.3966
CII	-11.3968
ylim	-11.3969
combin	-11.3969
ermissions	-11.3973
IPV	-11.3975
sortb	-11.3978
dew	-11.3978
lotter	-11.3978
Org	-11.3981
ipa	-11.3983
vpc	-11.3985
Neste	-11.3992
SENTINEL	-11.3996
abbreviat	-11.3996
consolidate	-11.3996
facebook	-11.3996
STRUCT	-11.3996
visualize	-11.3997
lua	-11.4002
polyfit	-11.4003
deref	-11.4013
UMP	-11.4016
Centr	-11.4018
zmat	-11.4021
TTL	-11.403
INV	-11.4031
jenkins	-11.4042
Cluster	-11.4042
volatil	-11.4043
pheno	-11.4043
somatic	-11.4043
SELECTOR	-11.4044
eqprop	-11.4051
ilx	-11.4052
mydata	-11.4059
Rev	-11.4063
nla	-11.4066
registr	-11.4068
infinit	-11.4074
fstat	-11.4076
rsrc	-11.4084
bandpass	-11.4088
cryptograph	-11.4089
RESOLUTION	-11.4089
arbitrar	-11.4089
gethostby	-11.4089
Device	-11.4089
SHOW	-11.4089
Related	-11.4089
slaves	-11.409
Relation	-11.409
Rect	-11.4092
science	-11.4092
inbox	-11.4099
igs	-11.4109
geot	-11.4109
AGE	-11.4109
guide	-11.4112
Task	-11.4117
pvt	-11.412
tend	-11.4124
missed	-11.4128
etting	-11.413
writeto	-11.4136
MOUSE	-11.4138
mlp	-11.4139
immutable	-11.4143
Quit	-11.4148
fire	-11.4151
Ellips	-11.4152
formula	-11.4152
balanc	-11.4167
chess	-11.4171
Curr	-11.4182
SHORT	-11.4184
KEEP	-11.4184
Board	-11.4184
Font	-11.4185
bri	-11.4185
CAS	-11.4187
summed	-11.419
SAT	-11.4195
Rock	-11.4197
lacp	-11.4199
ingress	-11.4206
Dim	-11.4208
iops	-11.4218
expl	-11.422
moe	-11.4221
tril	-11.4223
TOL	-11.4227
CALL	-11.423
Offset	-11.4232
REDI	-11.4232
Apply	-11.424
atm	-11.4242
het	-11.4244
upto	-11.4246
acros	-11.4248
toml	-11.4251
fib	-11.4254
asynchronous	-11.4259
placed	-11.4265
opj	-11.4267
pypars	-11.4271
png	-11.4271
HID	-11.4276
mapper	-11.4277
RDW	-11.4277
AVAIL	-11.4279
INTEGER	-11.4279
Channel	-11.4279
COMPRESS	-11.4279
THRESHOLD	-11.4279
exclus	-11.4283
nlmsg	-11.4285
chown	-11.4289
subj	-11.4299
parallelis	-11.4303
monet	-11.4309
gtr	-11.4314
latt	-11.4315
evp	-11.4324
permitt	-11.4327
Evaluat	-11.4328
caffe	-11.4328
vagrant	-11.4329
istart	-11.4329
Poll	-11.433
gments	-11.4339
MPL	-11.4344
oct	-11.4359
IMG	-11.4359
diffus	-11.4362
lbd	-11.4367
BIG	-11.4375
Unexpected	-11.4376
reversibl	-11.4376
BACKEND	-11.4378
vega	-11.438
tron	-11.4381
insertions	-11.4383
bov	-11.4384
osa	-11.4384
beam	-11.439
rust	-11.4396
grade	-11.4407
Mac	-11.441
slug	-11.4413
MPI	-11.4417
End	-11.4419
classified	-11.4422
CRYPT	-11.4424
HANDLER	-11.4424
twig	-11.4425
distort	-11.4425
album	-11.4426
Drag	-11.4436
nsp	-11.4441
internal	-11.4442
MARKER	-11.4444
mailbox	-11.4447
dato	-11.4457
morpholog	-11.4458
validation	-11.447
Interp	-11.4471
MOVE	-11.4473
Suffix	-11.4473
TITLE	-11.4473
hadoop	-11.4473
facilit	-11.4473
CRRA	-11.4474
AFTER	-11.4476
pgp	-11.4476
impute	-11.4481
warning	-11.4489
welc	-11.4492
vox	-11.4497
mpc	-11.4501
getpw	-11.4507
tderr	-11.4508
ctr	-11.4509
msk	-11.4513
concatenat	-11.4522
mqtt	-11.4522
aead	-11.4522
fluent	-11.4528
resolv	-11.4528
linestyle	-11.4545
samtool	-11.4548
SEL	-11.4548
ffill	-11.4551
tcod	-11.4553
XL	-11.4553
dni	-11.4554
esired	-11.4564
nut	-11.4567
Aggregat	-11.4571
amplitude	-11.4571
bullet	-11.4571
fruit	-11.4571
facecolor	-11.4572
unpickle	-11.4574
patien	-11.4575
twin	-11.4577
Dataset	-11.4578
alarm	-11.4579
hypot	-11.458
kurt	-11.458
hatch	-11.4582
present	-11.4584
Print	-11.4586
CONN	-11.4589
pga	-11.4591
Wave	-11.4592
slashe	-11.4594
prioriti	-11.46
mill	-11.4607
goe	-11.4608
FILETYPE	-11.4614
receiv	-11.4615
CMS	-11.4615
respond	-11.462
LIGHT	-11.4621
Similar	-11.4621
Plugin	-11.4621
vex	-11.4621
BLACK	-11.4621
hydrate	-11.4622
Cron	-11.4623
dna	-11.4625
Chem	-11.4626
sweep	-11.4628
densit	-11.4632
projection	-11.4632
pysam	-11.4644
perp	-11.4662
black	-11.4663
collid	-11.4663
dao	-11.4666
CANCEL	-11.4667
TERM	-11.4667
MOUNT	-11.4671
interrupt	-11.4671
Numpy	-11.4671
REUSE	-11.4674
Discover	-11.4676
DEL	-11.4677
machine	-11.4694
nsim	-11.4698
held	-11.4701
ifname	-11.4706
bps	-11.4707
sendto	-11.4709
allele	-11.4714
usage	-11.4716
outstr	-11.4717
hack	-11.472
Global	-11.4721
General	-11.4721
Kwarg	-11.4722
literal	-11.4722
SNP	-11.4724
LOW	-11.4725
trick	-11.4727
Graphic	-11.473
REPORT	-11.473
ercentage	-11.4736
likely	-11.4743
shots	-11.4743
infra	-11.4745
Cloud	-11.4759
loglog	-11.476
ifft	-11.4763
MINIM	-11.4766
annotation	-11.4767
INSERT	-11.4771
supplement	-11.4771
discriminat	-11.4771
Detect	-11.4771
Modal	-11.4771
green	-11.4771
parens	-11.4774
Ilo	-11.4776
minima	-11.4777
lspinfo	-11.4777
Panda	-11.4785
slope	-11.4788
URLS	-11.4792
REAL	-11.4793
Loc	-11.4797
RAD	-11.4798
transaction	-11.4806
jsondata	-11.4811
Extension	-11.4821
magnitude	-11.4821
dashe	-11.4821
myapp	-11.4822
yaku	-11.4822
MAT	-11.4822
mpeg	-11.4822
ctrl	-11.4823
eigvals	-11.4831
pel	-11.4832
prom	-11.4833
fancy	-11.4833
Pair	-11.4841
simplic	-11.4842
ude	-11.4845
crop	-11.4853
TAB	-11.4863
ijk	-11.4864
DEFINE	-11.4871
Build	-11.4872
gpx	-11.4875
KMe	-11.4875
FOLDER	-11.4878
quet	-11.4883
cnm	-11.4887
Mix	-11.489
monom	-11.4892
Touch	-11.4893
Dag	-11.49
aas	-11.4903
signer	-11.491
describ	-11.4912
SERV	-11.4919
SCREEN	-11.4923
approach	-11.4923
scenario	-11.4923
rational	-11.4924
equit	-11.4927
Atomic	-11.4927
xso	-11.4933
DECRE	-11.4935
rasterize	-11.4939
sasl	-11.4942
lti	-11.4948
ngl	-11.4951
trip	-11.4952
pda	-11.4962
electrode	-11.4974
proposal	-11.4974
REPLACE	-11.4975
adam	-11.4976
normcase	-11.4979
replicate	-11.4983
reverse	-11.4991
BRIGHT	-11.4996
Sep	-11.4997
CAL	-11.4998
composer	-11.4999
getch	-11.5007
IPS	-11.5012
trm	-11.5018
turb	-11.5019
TCOD	-11.5026
proportion	-11.5026
LSTM	-11.5027
triplet	-11.5027
WRAP	-11.5027
updat	-11.5032
Wait	-11.5033
urns	-11.5034
Compan	-11.5037
alibration	-11.5044
timers	-11.506
assert	-11.5068
TIMESTAMP	-11.5078
auxiliar	-11.5078
Attach	-11.5078
gravity	-11.5078
hgvs	-11.5078
WRON	-11.5078
Coord	-11.5078
xlrd	-11.5078
flg	-11.5079
shelf	-11.5092
fmtstr	-11.5095
hmm	-11.5103
Sequence	-11.5112
irc	-11.5115
Secur	-11.5121
TICAL	-11.5122
specific	-11.5127
Cti	-11.5129
Coordinate	-11.513
stationary	-11.513
Masked	-11.513
alem	-11.5132
foli	-11.5135
MODEL	-11.514
missing	-11.5149
pfm	-11.5151
stroke	-11.5152
SSE	-11.5153
arcsin	-11.5161
secret	-11.5162
faker	-11.5164
ibm	-11.517
cpts	-11.5175
demag	-11.5177
GEO	-11.5179
advertise	-11.5182
Flush	-11.5182
reveal	-11.5182
addition	-11.5182
Tuple	-11.5183
commerc	-11.5184
recipe	-11.5185
callable	-11.5186
raceback	-11.5188
flight	-11.5193
IDTo	-11.5202
PENDING	-11.5202
gast	-11.5206
PRINT	-11.5207
DEM	-11.5208
endian	-11.521
revoc	-11.5211
elec	-11.5213
REPO	-11.5225
ashboard	-11.5226
tiny	-11.5226
Expect	-11.5235
lemmatize	-11.5235
nfft	-11.5235
ecrement	-11.5235
authz	-11.5241
condense	-11.5245
kml	-11.525
tour	-11.5259
wiki	-11.5261
excess	-11.5262
heav	-11.5264
alette	-11.5265
pki	-11.527
house	-11.527
goals	-11.5273
Confirm	-11.5288
Terminat	-11.5289
pfx	-11.5291
enough	-11.5292
productions	-11.5293
bmp	-11.5293
barcode	-11.5301
original	-11.5302
CELL	-11.5304
fuse	-11.5315
keyword	-11.5324
external	-11.5324
attice	-11.5326
sheet	-11.5341
Advance	-11.5341
Choice	-11.5341
quiver	-11.5341
hdx	-11.5344
hdf	-11.5344
turi	-11.5347
RMATION	-11.5348
topological	-11.5356
itecol	-11.5356
pain	-11.5364
AXI	-11.5365
exponent	-11.5374
Convert	-11.5374
Periodic	-11.5394
Launch	-11.5394
Wiki	-11.5394
Boost	-11.5395
IFACE	-11.5398
aba	-11.5399
TEN	-11.5399
conductivit	-11.5407
btn	-11.5413
veta	-11.5415
Kill	-11.5422
sumption	-11.5432
hops	-11.5434
waiter	-11.5443
Byte	-11.5444
section	-11.5445
dequeue	-11.5445
shorth	-11.5448
sqr	-11.5448
INITIAL	-11.5448
abscissa	-11.5448
snpeff	-11.5448
cyclic	-11.5449
negatives	-11.545
THREAD	-11.5451
acf	-11.5455
Alignment	-11.5458
genda	-11.5462
droid	-11.547
taper	-11.5472
urwi	-11.5473
spring	-11.5474
startpos	-11.5495
pydev	-11.5502
anisotrop	-11.5502
shoot	-11.5502
Ticke	-11.5503
Special	-11.5503
pypet	-11.5503
perturb	-11.5504
Stride	-11.5505
executor	-11.5507
Mismatch	-11.5511
ANA	-11.5513
Cart	-11.5515
recision	-11.5519
qpi	-11.5521
Hard	-11.5521
crud	-11.5524
YES	-11.5525
kpts	-11.5525
digitize	-11.5526
copie	-11.5534
possibl	-11.5536
cron	-11.5538
ottom	-11.5541
presets	-11.5542
cud	-11.5553
brk	-11.5554
ALPHA	-11.5557
Slack	-11.5557
Square	-11.5557
scanned	-11.5557
pyxl	-11.5561
vmss	-11.5563
bsd	-11.5566
fact	-11.5567
SORT	-11.5568
blacklist	-11.5569
Mini	-11.5576
Div	-11.5577
resource	-11.5583
Comm	-11.5585
Sol	-11.5586
preserv	-11.5591
indic	-11.5596
organ	-11.5598
Hot	-11.5601
pole	-11.5603
Sym	-11.5603
implement	-11.5604
humanize	-11.5611
immediate	-11.5611
Expand	-11.5612
stateful	-11.5615
plg	-11.5615
stimul	-11.5616
RMS	-11.5617
shallow	-11.5618
cook	-11.563
setdefault	-11.5631
fort	-11.5631
Runs	-11.5631
outputdir	-11.5638
Undefin	-11.5653
New	-11.5661
SERIAL	-11.5666
sketch	-11.5666
BLUE	-11.5666
crawl	-11.5667
REMOVE	-11.5667
White	-11.5669
Hea	-11.5669
corpora	-11.5669
TURE	-11.5683
Consul	-11.5687
bml	-11.5687
shte	-11.5688
ELL	-11.5693
Ops	-11.5694
oversampl	-11.5695
plat	-11.5697
Cla	-11.57
ENCE	-11.5705
wish	-11.5712
PLOT	-11.5718
adj	-11.5719
BOOK	-11.5721
gluon	-11.5721
Walk	-11.5722
retain	-11.5722
audit	-11.5722
strike	-11.5723
ONTA	-11.5727
Disconnect	-11.5727
priva	-11.5731
DAG	-11.5731
RFC	-11.5736
ebins	-11.5744
chop	-11.5748
uction	-11.5751
OFP	-11.5752
chisq	-11.5753
AKE	-11.5756
clock	-11.5758
ancestr	-11.5767
prg	-11.5767
loud	-11.5771
odl	-11.5772
drac	-11.5774
ANNOTATION	-11.5777
cyg	-11.5777
initiate	-11.5778
uniq	-11.5778
kmin	-11.5779
disjoin	-11.5784
BORDER	-11.5787
Affin	-11.579
URI	-11.5792
docstr	-11.5793
sparsit	-11.5798
estdir	-11.5802
perma	-11.5805
urant	-11.5806
svn	-11.581
barh	-11.5822
Local	-11.5825
refined	-11.5826
debugg	-11.5829
keystore	-11.5831
OPERATION	-11.5833
shadow	-11.5833
Engineer	-11.5833
wheel	-11.5833
HORI	-11.5833
parallax	-11.5833
antec	-11.5834
werk	-11.5834
IMU	-11.5836
minlen	-11.5844
acm	-11.5846
ecg	-11.5852
cancel	-11.5859
uli	-11.586
addrinfo	-11.5865
SYM	-11.5878
rgs	-11.5878
gai	-11.5881
Gro	-11.5886
CHARACTER	-11.5889
INSTANCE	-11.5889
annual	-11.5889
Dialog	-11.5889
Astro	-11.589
dependent	-11.5892
EXTRACT	-11.5892
runner	-11.5892
modification	-11.5896
mva	-11.5908
Sampl	-11.5909
Prev	-11.591
implie	-11.5917
mfc	-11.5923
Assembl	-11.5946
Buffer	-11.5946
Orient	-11.5946
CTRL	-11.5946
Pitch	-11.5946
BOTT	-11.5946
unspent	-11.5946
UDB	-11.5946
USAGE	-11.5946
DELAY	-11.5946
ortholog	-11.5955
ights	-11.596
plug	-11.5961
IMAP	-11.5962
perce	-11.5967
replie	-11.597
brl	-11.5972
OCK	-11.5976
detrend	-11.5987
parameter	-11.5995
IMAGES	-11.6001
eccentric	-11.6002
PERIOD	-11.6002
Annotat	-11.6003
coerce	-11.6003
discord	-11.6003
listening	-11.6003
censor	-11.6004
spyder	-11.6005
Roll	-11.6005
SHARE	-11.6005
blurr	-11.6006
LON	-11.6006
react	-11.6007
Persisten	-11.6009
possibilit	-11.6013
unbound	-11.6017
graceful	-11.6021
mfa	-11.6023
heli	-11.6026
ossible	-11.6037
okeh	-11.6048
VPC	-11.6048
utter	-11.6052
INDICATOR	-11.6059
bootstrap	-11.606
ptp	-11.6077
ambr	-11.6083
never	-11.6084
mixin	-11.6084
ASN	-11.6085
GSS	-11.6092
ACC	-11.6102
EXIST	-11.6105
Exec	-11.611
PRIVATE	-11.6117
frequent	-11.6117
LOOP	-11.6118
WEIGHT	-11.6125
ILE	-11.6132
prof	-11.6144
xslt	-11.6144
proper	-11.6151
ipap	-11.616
msh	-11.6161
URN	-11.6167
Priorit	-11.6169
COMMIT	-11.6175
RULE	-11.6175
Inner	-11.6175
pwr	-11.6176
Sound	-11.6176
EXTRA	-11.6176
DOWNLOAD	-11.6176
seek	-11.6178
travis	-11.6178
DIRECTION	-11.6179
KILL	-11.6179
typical	-11.619
WAY	-11.6192
SEED	-11.6193
leak	-11.6193
Pool	-11.6203
usearch	-11.6203
Core	-11.6204
reorder	-11.6204
thermo	-11.6208
ontour	-11.6211
actuall	-11.6212
vdn	-11.6214
urable	-11.6214
outdat	-11.6216
excp	-11.6218
terances	-11.622
Overlap	-11.6233
quiz	-11.6236
exhal	-11.6236
ndpoint	-11.6237
reinstall	-11.6238
HEX	-11.6241
delu	-11.6244
hmc	-11.6245
returner	-11.6245
backslash	-11.6247
octet	-11.6248
RIB	-11.6249
lexpo	-11.6251
quat	-11.6251
palette	-11.6258
OID	-11.6263
tets	-11.6264
gff	-11.6267
Howe	-11.6269
INTR	-11.6275
bead	-11.6278
Manager	-11.6279
RESULTS	-11.6279
CELERY	-11.6291
caught	-11.6291
COEFF	-11.6291
Quote	-11.6292
compose	-11.6293
historic	-11.6296
formset	-11.6298
flippe	-11.63
BLE	-11.6303
CUB	-11.6319
ymbolic	-11.632
vapor	-11.632
Quant	-11.6326
trata	-11.6332
Strat	-11.6341
Minor	-11.6342
Abs	-11.6342
nearby	-11.635
Micro	-11.635
Balance	-11.635
beacon	-11.635
SHUT	-11.6354
respective	-11.6355
iraf	-11.6361
Sampler	-11.6363
begin	-11.6374
Gam	-11.6375
cency	-11.6377
CAST	-11.6377
escent	-11.6379
moo	-11.6391
alloc	-11.6392
Art	-11.6397
ndv	-11.6407
bestperiod	-11.6407
APPLICATION	-11.6409
molecule	-11.6409
further	-11.6409
lemmas	-11.641
PLAY	-11.6411
NEWLINE	-11.6412
elide	-11.6417
Under	-11.642
parql	-11.6423
Impl	-11.6426
jsonl	-11.6428
AFF	-11.6428
coop	-11.643
astropy	-11.6434
BOM	-11.6442
Seg	-11.6453
REP	-11.646
accent	-11.6468
Classifier	-11.6469
redundant	-11.6469
gnupg	-11.6469
dupes	-11.647
equation	-11.6471
Crawl	-11.6471
illegal	-11.6473
proficienc	-11.6474
exsha	-11.6475
venn	-11.6475
odo	-11.6476
simplifie	-11.648
subtitles	-11.6507
outfp	-11.652
REN	-11.6521
wrt	-11.6521
deployment	-11.6521
tickers	-11.6525
ositive	-11.6528
bezier	-11.6529
sgf	-11.6532
elief	-11.6532
popo	-11.6534
ellipsi	-11.6537
identificat	-11.6537
OAUTH	-11.6541
lru	-11.6549
trend	-11.6551
xls	-11.6552
recompute	-11.6555
repl	-11.6559
upture	-11.6577
before	-11.658
axarr	-11.6581
bell	-11.6584
bond	-11.6586
toggle	-11.6589
kerbe	-11.6589
rlzs	-11.659
gemini	-11.6591
psm	-11.6594
spinner	-11.6595
tspan	-11.6598
neous	-11.6598
english	-11.6604
TCPServ	-11.6606
Split	-11.6611
nparray	-11.6624
topo	-11.663
PUB	-11.6632
pyqt	-11.6634
Disc	-11.664
Ident	-11.6641
assess	-11.6642
vip	-11.6646
neural	-11.665
inhibit	-11.665
bcbio	-11.665
collision	-11.665
Writer	-11.6651
ITATION	-11.6657
HOUR	-11.6657
region	-11.666
OPCODE	-11.6676
getsock	-11.6676
WMI	-11.6678
treeview	-11.6679
depart	-11.6683
Lib	-11.6686
subquery	-11.6702
ordinal	-11.6711
NUMERIC	-11.6711
isotope	-11.6711
indel	-11.6711
FAILURE	-11.6711
POOL	-11.6711
Absolut	-11.6712
stratif	-11.6712
much	-11.6713
pywb	-11.6714
division	-11.6714
Boot	-11.6715
iagonal	-11.6717
nake	-11.6722
tmplt	-11.6727
GPG	-11.6737
compani	-11.6737
PERM	-11.6742
DAYS	-11.6743
DEG	-11.675
DESCEND	-11.675
jac	-11.676
histogramd	-11.6765
preprocessor	-11.6765
Neur	-11.6768
orito	-11.6771
Definition	-11.6772
broadcast	-11.6773
Region	-11.6773
CHAIN	-11.6773
Rgb	-11.6774
movie	-11.6777
STAGE	-11.6777
clique	-11.6778
reflect	-11.6779
soon	-11.6791
trail	-11.6798
numero	-11.6805
Wrapp	-11.6806
proba	-11.6811
Compat	-11.6822
irflow	-11.6824
Navigat	-11.6834
console	-11.6835
REGION	-11.6835
jwks	-11.6836
alternat	-11.6836
great	-11.6838
vaex	-11.6838
netcdf	-11.6839
utomation	-11.6839
persist	-11.6844
tape	-11.6851
Conditional	-11.6853
emma	-11.6857
depend	-11.6861
mult	-11.6866
readlink	-11.6868
worksheet	-11.687
NAT	-11.6872
sysinfo	-11.6873
spikes	-11.6876
RLF	-11.6878
fixture	-11.6887
hrv	-11.6894
Previous	-11.6896
EQUAL	-11.6897
Atom	-11.69
SMALL	-11.6902
ANGO	-11.6914
precompute	-11.692
Disable	-11.6923
wap	-11.6939
segm	-11.6943
oir	-11.695
thresh	-11.6957
explain	-11.6958
perplexit	-11.6958
ipmi	-11.6961
popular	-11.6961
INTERNAL	-11.6963
imedelta	-11.6967
voc	-11.6967
Coco	-11.6971
gpd	-11.6977
plitter	-11.6996
CTL	-11.6996
cuit	-11.6997
choles	-11.7005
jbo	-11.701
second	-11.702
Protect	-11.7021
SECURITY	-11.7021
redundanc	-11.7021
piano	-11.7022
calendar	-11.7022
hyp	-11.7022
SOAP	-11.7024
unidecode	-11.703
duty	-11.7031
seism	-11.7031
COMMA	-11.7037
Pixmap	-11.7037
LANG	-11.7039
IPAddress	-11.7039
gnu	-11.7048
chk	-11.7062
india	-11.7081
spread	-11.7082
ALGORITHM	-11.7084
difficult	-11.7084
nucmer	-11.7084
UPLOAD	-11.7086
oth	-11.7094
Reporte	-11.7095
german	-11.7107
Allocat	-11.7109
defect	-11.7111
ACL	-11.7139
ARCH	-11.7142
Keyword	-11.7144
BEGIN	-11.7148
symmetrize	-11.7148
ecef	-11.7149
specification	-11.7153
EXPORT	-11.7154
relativ	-11.7157
lcformatdi	-11.7162
histori	-11.7167
lance	-11.7171
unfold	-11.7178
ology	-11.7189
Extract	-11.719
symbol	-11.7191
radix	-11.7194
Pick	-11.7206
basedir	-11.7208
ENC	-11.7209
aton	-11.7212
rafcon	-11.7212
Molecul	-11.7212
EXAMPLE	-11.7212
OPERATOR	-11.7212
preceding	-11.7212
mutagen	-11.7212
RESERVE	-11.7214
Small	-11.7214
Kern	-11.7215
Super	-11.7216
blue	-11.7217
empir	-11.7217
QUIT	-11.7218
lctool	-11.7228
Upload	-11.7228
HMAC	-11.7234
wordnet	-11.7236
GRP	-11.7238
hamm	-11.7245
branchx	-11.7261
ortho	-11.7266
TWO	-11.7276
BUCKET	-11.7277
extrapolate	-11.7277
Programm	-11.7277
anneal	-11.7277
icohp	-11.7278
assist	-11.7279
Present	-11.7279
traceback	-11.7279
projex	-11.7281
Issue	-11.7284
aoi	-11.7289
marshall	-11.7292
manual	-11.7292
NAN	-11.7313
Proj	-11.7316
macro	-11.7334
UNK	-11.7336
occurr	-11.7338
gosubdag	-11.7342
imgur	-11.7343
Trap	-11.7344
obile	-11.7349
glossar	-11.7352
UNSET	-11.7361
usrgos	-11.7376
binari	-11.7387
pants	-11.7395
ESX	-11.7399
HIGHE	-11.7402
Accurac	-11.7407
Ignore	-11.7407
ngredient	-11.7407
Known	-11.7409
utect	-11.7414
Multipl	-11.7414
chao	-11.7422
Arc	-11.7423
factorize	-11.7431
citation	-11.7432
small	-11.7433
oolbar	-11.7438
standard	-11.7441
nfo	-11.7456
motor	-11.7459
coordinat	-11.7465
Market	-11.7473
PERMISSION	-11.7473
Built	-11.7473
ICMP	-11.7477
FIND	-11.7478
propagation	-11.7479
nucle	-11.7487
wkb	-11.7491
healp	-11.7505
natsort	-11.7506
Comment	-11.7514
CONT	-11.7514
enroll	-11.7532
Tech	-11.7535
rincipal	-11.7539
FAMIL	-11.7539
Provide	-11.7539
appear	-11.7539
satos	-11.7539
evolve	-11.7539
driz	-11.7542
decay	-11.7544
negotiate	-11.7548
analytic	-11.755
Grid	-11.7552
multipli	-11.7558
validate	-11.7559
equalize	-11.7561
errcol	-11.7562
dummy	-11.7566
planet	-11.7569
Term	-11.7569
hysical	-11.7579
DELIM	-11.7582
lambdif	-11.7591
anima	-11.76
Distribut	-11.7606
privatekey	-11.7606
straight	-11.7606
DELIMITER	-11.7606
SCORE	-11.7606
TRANSFORM	-11.7606
organization	-11.7606
LIGO	-11.7606
Control	-11.7607
slic	-11.7608
destruct	-11.7619
fftw	-11.7624
Pipe	-11.763
markeredge	-11.7638
Expr	-11.7639
Role	-11.7643
EPI	-11.7652
scaffolds	-11.7673
hamilton	-11.7673
Which	-11.7673
CHROM	-11.7673
squash	-11.7673
CALLBACK	-11.7673
GFile	-11.7675
doit	-11.7676
entrez	-11.7677
Structur	-11.7678
motion	-11.7691
RAM	-11.7706
Eig	-11.7713
ifti	-11.7714
Hill	-11.7715
keypress	-11.7725
tmux	-11.7737
analys	-11.7737
aov	-11.7738
MONGO	-11.774
pylint	-11.7741
Replace	-11.7743
mlst	-11.7743
Calc	-11.7744
migrat	-11.7745
Prior	-11.7747
fromrepo	-11.775
vsi	-11.775
atten	-11.7756
Container	-11.7757
ransmission	-11.7762
notebook	-11.7765
alphabet	-11.7775
Compress	-11.7778
uake	-11.7783
lane	-11.7786
fidf	-11.7787
ardinalit	-11.7788
ROLL	-11.7796
COMM	-11.7799
DESCRIPTOR	-11.7808
RECOMMENDE	-11.7808
SCHEDULE	-11.7808
ruamel	-11.7808
weird	-11.7809
RANK	-11.7809
Exact	-11.7809
Enter	-11.7809
ENCODE	-11.7812
ssessment	-11.7813
SETUP	-11.7814
Paul	-11.7816
plotter	-11.7816
histogram	-11.7817
loan	-11.7819
walltime	-11.7823
illar	-11.7834
leap	-11.7844
refactor	-11.7862
autosave	-11.7864
skipn	-11.7868
propagat	-11.7871
Crypt	-11.7876
Continue	-11.7877
MODIFIE	-11.7877
POWER	-11.7877
SQUARE	-11.7877
Liquid	-11.7877
generating	-11.7877
Width	-11.7877
COMMON	-11.7878
tuff	-11.7881
bedtool	-11.7886
occ	-11.7892
bfun	-11.7894
agmom	-11.7908
lexsort	-11.7933
Recursive	-11.7946
SEQUENCE	-11.7946
nucleotide	-11.7946
arxiv	-11.7946
redeem	-11.7946
INTERFACE	-11.7946
Aug	-11.7952
conll	-11.7956
amazon	-11.7961
HALT	-11.7965
vbm	-11.7975
packag	-11.7976
BOD	-11.7984
moment	-11.7993
printl	-11.8004
anagement	-11.8007
COLLECTION	-11.8015
PAYLOAD	-11.8015
ISSUE	-11.8016
unknown	-11.8016
SAVE	-11.802
cntx	-11.8027
DIRECT	-11.8027
percentile	-11.8034
consec	-11.8042
bkg	-11.8052
getmodule	-11.8053
digestmod	-11.8059
terminator	-11.806
video	-11.8063
zeu	-11.8067
GRAD	-11.8069
ploid	-11.8071
Canno	-11.8074
purp	-11.8076
stsq	-11.8077
SENSOR	-11.8085
ugzilla	-11.8085
Correct	-11.8085
ltitude	-11.8085
Schema	-11.8086
progeni	-11.8086
disassemble	-11.8087
Gramma	-11.8087
slop	-11.8089
caption	-11.809
kick	-11.8091
tooltip	-11.8091
butter	-11.8103
xdg	-11.8108
hann	-11.8108
ounds	-11.811
Large	-11.8113
Worker	-11.8132
elery	-11.8138
proxim	-11.8146
iii	-11.815
climat	-11.815
Categorie	-11.8151
waypoint	-11.8154
GOOGLE	-11.8156
disambiguat	-11.8156
neuroml	-11.8156
iscoroutine	-11.8156
physics	-11.8156
causal	-11.8156
Omega	-11.8156
orphan	-11.8156
requisite	-11.8156
pareto	-11.8156
clari	-11.8159
Boro	-11.816
Decl	-11.8169
transact	-11.8173
markov	-11.8178
chord	-11.8179
helic	-11.8184
encounter	-11.8188
polarit	-11.8194
bundle	-11.8205
fftshift	-11.8205
transparen	-11.8206
apical	-11.8222
CONDITION	-11.8227
MEMBER	-11.8227
convolution	-11.8227
destroy	-11.8227
Leaf	-11.8227
maximal	-11.8228
brick	-11.8228
Compose	-11.8228
synth	-11.8229
notfound	-11.8231
Deep	-11.8236
LESS	-11.8237
gbm	-11.8244
levation	-11.8245
normaliz	-11.8246
wvfeature	-11.8247
reservation	-11.8254
rectw	-11.8263
flavor	-11.8273
iparc	-11.8276
UNI	-11.8279
QLine	-11.8281
PLU	-11.8284
wgs	-11.8289
electron	-11.8292
BOOL	-11.8298
PROGRESS	-11.8298
Reject	-11.8301
regard	-11.8303
commandline	-11.8307
aaa	-11.8307
leven	-11.8316
baker	-11.832
bitrat	-11.8327
denie	-11.8327
egy	-11.8332
FREQ	-11.8332
COUNTR	-11.8335
superset	-11.8365
rigi	-11.8368
PLACE	-11.8369
CHILD	-11.837
MACHINE	-11.837
RELEASE	-11.837
ENCRYPT	-11.8371
Target	-11.8371
bwa	-11.8372
SAFE	-11.8385
Lega	-11.8385
iedad	-11.8387
intents	-11.839
ipam	-11.8397
whitelist	-11.8401
rials	-11.8417
inven	-11.8419
Cnf	-11.8425
SIDE	-11.8432
kerning	-11.8442
kwonlyarg	-11.8442
WAVE	-11.8443
Fatal	-11.8443
forums	-11.8443
OLDER	-11.8443
POST	-11.8444
payments	-11.8445
thru	-11.8446
ASSET	-11.8451
confirmation	-11.8456
wvl	-11.846
Adapter	-11.8466
Kaf	-11.8478
lpd	-11.8482
unflatten	-11.8486
heappo	-11.849
FOO	-11.8494
multiple	-11.85
choice	-11.8506
lxd	-11.8508
acket	-11.851
Button	-11.8515
Stretch	-11.8515
BLANK	-11.8515
Repeat	-11.8515
TOTAL	-11.8516
teleme	-11.8516
parenthes	-11.8517
deaths	-11.8523
PACKET	-11.8528
Topolog	-11.853
upon	-11.8532
ancy	-11.8554
subdomain	-11.8555
docstring	-11.8557
distro	-11.8578
KNOWN	-11.8588
ARGUMENT	-11.8589
SPECIAL	-11.8589
obfuscate	-11.8589
bibtex	-11.8589
Members	-11.8589
MICRO	-11.8589
Original	-11.8589
nonymous	-11.8589
leastsq	-11.859
mapping	-11.8591
GRID	-11.8593
igi	-11.8593
regional	-11.8598
dayof	-11.8604
rxn	-11.8611
anifest	-11.8623
registration	-11.8652
Interval	-11.8661
Constraint	-11.8663
ECISION	-11.8663
recursion	-11.8663
liquid	-11.8663
reinforce	-11.8663
wgt	-11.8664
obf	-11.8674
minibatch	-11.8675
atient	-11.8689
occupanc	-11.8689
enrollment	-11.8693
Adapt	-11.8716
swag	-11.8727
LOC	-11.8729
PRIORIT	-11.8738
Modify	-11.8738
rewind	-11.874
OTHER	-11.8746
bnds	-11.8748
lspmethod	-11.8761
UCM	-11.8763
leanup	-11.8764
normalizer	-11.877
WRIT	-11.8774
autoload	-11.8775
invisib	-11.8781
bility	-11.879
BEFORE	-11.8813
DOCUMENT	-11.8813
EXCLUDE	-11.8813
SHIFT	-11.8813
YELLOW	-11.8813
pearson	-11.8813
DELTA	-11.8813
Discret	-11.8815
Export	-11.8815
generation	-11.8815
erode	-11.8819
HOOK	-11.882
colour	-11.8823
ontinuous	-11.8831
annots	-11.8832
DATASET	-11.8833
contain	-11.885
pinne	-11.8851
VPN	-11.8853
salar	-11.8863
ttention	-11.887
MIMEM	-11.8877
ambient	-11.8889
Representation	-11.8889
nginx	-11.8889
Water	-11.8889
LARGE	-11.889
guard	-11.889
expert	-11.889
zoo	-11.8903
uplo	-11.8913
invit	-11.8919
blend	-11.8925
optimise	-11.8938
SYN	-11.8943
ensation	-11.8962
CLOUD	-11.8965
INCLUDE	-11.8965
VIDEO	-11.8965
exempt	-11.8965
Tensor	-11.8965
stereo	-11.8965
Probabilit	-11.8966
inception	-11.8971
FILL	-11.8973
geco	-11.8974
couch	-11.8977
spline	-11.8985
itertuple	-11.8987
ugal	-11.8993
lamina	-11.9019
permute	-11.902
mazon	-11.9025
FACE	-11.9037
Pseudo	-11.9042
convenien	-11.9042
Queue	-11.9042
Void	-11.9042
prepare	-11.9042
preempt	-11.9043
geometric	-11.9044
pivot	-11.9044
CONVERSION	-11.9047
TSK	-11.9067
conom	-11.9072
uniform	-11.9073
longlong	-11.9075
evels	-11.9087
market	-11.9096
arkdown	-11.9097
predi	-11.9115
REPL	-11.9118
ILL	-11.9118
pjm	-11.9119
instantaneous	-11.9119
hilbert	-11.9119
nterprise	-11.912
System	-11.912
WGS	-11.9121
NORM	-11.9122
mako	-11.9122
Redirect	-11.9128
transport	-11.9132
phono	-11.914
mestate	-11.9141
linger	-11.9187
submodule	-11.9192
Utilit	-11.9196
rosetta	-11.9198
chooser	-11.9198
lzma	-11.9198
TICK	-11.9198
Authorize	-11.9198
Good	-11.9199
ompilation	-11.9199
studie	-11.92
enclos	-11.9204
Output	-11.9209
edgecolor	-11.9221
plasm	-11.9235
Boundar	-11.924
parametri	-11.9263
CREAT	-11.9266
throw	-11.9272
LOOKUP	-11.9276
MONITOR	-11.9276
PHRASE	-11.9276
snippet	-11.9276
ingularity	-11.9276
emitte	-11.9278
tailment	-11.9281
rectify	-11.9284
segwi	-11.929
ncbi	-11.9294
radial	-11.9301
Entit	-11.9334
storagemode	-11.9347
IGN	-11.9347
Energ	-11.9356
absorb	-11.9356
erasure	-11.9356
thumb	-11.936
functionalit	-11.9361
metaph	-11.9363
dora	-11.9395
clades	-11.9396
opcode	-11.9399
TIFF	-11.9426
randomize	-11.9433
ENVIRON	-11.9436
FINISHE	-11.9436
LGBM	-11.9436
fingerprint	-11.9436
FIXED	-11.9436
aesthetic	-11.9436
Blueprint	-11.9437
XTA	-11.944
Current	-11.944
bioma	-11.9443
poppe	-11.9443
Xtra	-11.9443
cocon	-11.9447
reorient	-11.9455
SLS	-11.9457
Than	-11.9467
daemonize	-11.9468
egative	-11.9477
notifi	-11.9489
often	-11.9508
ealth	-11.9512
SLEEP	-11.9516
VERIFY	-11.9516
Warning	-11.9516
Bayes	-11.9517
expensive	-11.9517
predictor	-11.9518
CART	-11.952
UPPER	-11.9521
hlet	-11.9522
TODO	-11.9526
BEM	-11.953
rlp	-11.954
Volume	-11.9542
PARENT	-11.9548
otus	-11.9552
tsne	-11.9559
covar	-11.9564
orpus	-11.9582
LIVE	-11.9589
IDL	-11.9596
DEPRECAT	-11.9598
Estimat	-11.9598
lyric	-11.9599
terrain	-11.9601
heron	-11.9612
leav	-11.9648
notch	-11.9649
Arch	-11.965
flatten	-11.966
TERNAL	-11.9678
BOOLEAN	-11.968
Yield	-11.968
establish	-11.968
manipulat	-11.968
thumbnail	-11.968
TUPLE	-11.968
qualimap	-11.968
SKOS	-11.968
MAXIM	-11.9681
Blue	-11.9682
ENTITY	-11.9693
Wil	-11.9696
getrand	-11.9697
Near	-11.9706
ault	-11.9707
Downloade	-11.9718
smart	-11.9729
MEDIUM	-11.9762
UNIQU	-11.9762
molecular	-11.9762
BINDING	-11.9762
DISPLAY	-11.9762
harvest	-11.9762
Place	-11.9762
voltage	-11.9762
RETRIE	-11.9763
arena	-11.9763
dismiss	-11.9771
changeme	-11.9771
buye	-11.9794
ICAL	-11.9802
ENGINE	-11.9846
VOWEL	-11.9846
pluralize	-11.9846
Capacit	-11.9846
Character	-11.9846
happen	-11.9846
LATCH	-11.9847
BLOB	-11.9847
xray	-11.9848
Health	-11.9852
Execut	-11.9855
nonempt	-11.9859
feasib	-11.9878
tream	-11.9901
SOME	-11.9905
charac	-11.9909
Collection	-11.993
FREQUENC	-11.993
cronym	-11.993
algebra	-11.9931
Gain	-11.9931
Script	-11.9934
coreml	-11.9937
seperat	-11.9938
deconv	-11.994
undersample	-11.9942
Package	-11.9943
fastqfile	-11.9966
cumul	-11.9976
rrback	-11.9979
bump	-11.9988
rabbitmq	-12.0014
ABORT	-12.0014
VOLU	-12.0014
IIIF	-12.0014
attack	-12.0014
Qualifie	-12.0014
jira	-12.0015
abiliti	-12.0015
fringe	-12.0015
Combo	-12.0016
cosmolog	-12.0016
swift	-12.0017
bitshares	-12.0018
Spectra	-12.0019
stepper	-12.0024
yubi	-12.0029
upcom	-12.0037
nucs	-12.0061
GRU	-12.0062
arkov	-12.008
grace	-12.0083
Serv	-12.0093
unifi	-12.01
Diagnos	-12.01
forensic	-12.01
pendulum	-12.01
Yellow	-12.01
breadth	-12.01
spotify	-12.01
ancilla	-12.01
Flip	-12.0103
jsonrpc	-12.0103
serialise	-12.0103
flair	-12.0104
PRESS	-12.0107
yards	-12.0109
remind	-12.0112
vocab	-12.0113
dron	-12.0119
synchronize	-12.0145
spell	-12.0151
cisco	-12.0158
generator	-12.016
SVD	-12.0163
subsampl	-12.0166
CLEAN	-12.0186
contingenc	-12.0186
complement	-12.0186
Break	-12.0186
mhcii	-12.0186
comparison	-12.0186
Shape	-12.0188
Spice	-12.0188
rectangle	-12.0189
representative	-12.0193
ixpeak	-12.0198
inflate	-12.0203
cao	-12.0206
RADI	-12.0221
Ada	-12.0246
turk	-12.026
redact	-12.0269
BOOT	-12.0273
Entrop	-12.0273
MASTER	-12.0273
watchdog	-12.0273
hallenge	-12.0273
SNMP	-12.0273
vidence	-12.0274
Wire	-12.0274
URATION	-12.0275
workspace	-12.0278
interleave	-12.028
Normal	-12.0292
reexec	-12.0304
predefine	-12.0312
methodcall	-12.0327
andidate	-12.0342
canonical	-12.035
PADDING	-12.0361
illuminan	-12.0361
corrupt	-12.0361
binarize	-12.0366
badge	-12.0374
saturat	-12.0398
discount	-12.0414
oken	-12.0421
disco	-12.0447
CERTIFICATE	-12.0449
VIRTUAL	-12.0449
sunrise	-12.0449
accurate	-12.0449
FINAL	-12.0449
rieman	-12.0449
occurence	-12.045
Mail	-12.0451
cirq	-12.0453
though	-12.0457
percolat	-12.046
winrepo	-12.0461
ensure	-12.0465
COMPAR	-12.047
nsprefix	-12.0492
sprites	-12.0497
OLS	-12.0503
realiz	-12.0522
rainbow	-12.0538
orchestrat	-12.0538
LIBRAR	-12.0538
cypher	-12.0538
controlled	-12.0539
VISIB	-12.054
Agent	-12.0541
winservice	-12.0548
baud	-12.0548
nii	-12.0555
mplification	-12.0555
rcpt	-12.0558
permissi	-12.0562
HSV	-12.0568
waveform	-12.0571
grandchild	-12.0579
nema	-12.0582
flav	-12.0582
eedback	-12.0602
REPEAT	-12.0629
diamond	-12.0629
distinguish	-12.0629
splash	-12.0629
julian	-12.0629
koji	-12.0629
bonus	-12.0629
PAUSE	-12.0631
earman	-12.0632
Saved	-12.0633
Combin	-12.0634
onlyif	-12.0639
cryptographic	-12.0644
acid	-12.0645
Rule	-12.0648
inequalit	-12.0661
LOWER	-12.0673
irmc	-12.0699
PEER	-12.071
cumprod	-12.0719
rouge	-12.0719
Insert	-12.0719
Float	-12.072
ogenic	-12.072
birth	-12.072
instantiat	-12.072
Orig	-12.0721
CKA	-12.0724
Release	-12.0728
pango	-12.0735
omograph	-12.0765
example	-12.0779
OUS	-12.0789
referred	-12.0791
ticket	-12.0796
Except	-12.0797
EMIR	-12.0805
probabl	-12.0806
oftware	-12.081
SEGMENT	-12.0811
WEEK	-12.0811
essential	-12.0811
tunnel	-12.0811
employe	-12.0811
PUSH	-12.0811
ARCHIVE	-12.0812
procedure	-12.0812
XGB	-12.0812
analiz	-12.0812
Digit	-12.0812
Slip	-12.0815
COPY	-12.0822
pythonco	-12.0826
Finalize	-12.0827
lagged	-12.0829
minimiz	-12.0831
fiot	-12.0841
odds	-12.0845
Debugge	-12.0857
vrfs	-12.0871
loglik	-12.0884
Suspicio	-12.0904
consonants	-12.0904
Include	-12.0904
Sensitive	-12.0904
rchitecture	-12.0904
CODON	-12.0904
thousand	-12.0904
Black	-12.0904
mecab	-12.0904
flood	-12.0904
forcing	-12.0904
obsrv	-12.0904
gbif	-12.0905
UNDEFINE	-12.0906
entinel	-12.0906
except	-12.0908
Overrid	-12.0909
MULTIPL	-12.0912
Importan	-12.0925
POLLIN	-12.0941
triangulat	-12.0997
RANDOM	-12.0997
satisfy	-12.0997
convention	-12.0997
Scalar	-12.0997
PROGRAM	-12.1
inputhook	-12.1004
nitro	-12.1025
roximal	-12.1038
glove	-12.1043
asyncs	-12.1063
axvs	-12.1068
CONSOLE	-12.1092
DOCKER	-12.1092
Project	-12.1092
infect	-12.1092
violin	-12.1092
SHAPE	-12.1092
ensive	-12.1093
Transpose	-12.1094
swapped	-12.1094
Scope	-12.1098
macaddr	-12.1099
CMD	-12.1103
multiplicat	-12.1106
randtl	-12.1108
landmark	-12.1108
dnde	-12.1111
AUTHENTICAT	-12.1187
COMPONENT	-12.1187
PRODUCT	-12.1187
disrupt	-12.1187
ECDSA	-12.1187
discretize	-12.1187
NIDM	-12.1187
DISTANCE	-12.1187
purpose	-12.1187
Twit	-12.1187
hutdown	-12.1188
TRACK	-12.1188
abandon	-12.1188
Depth	-12.1189
DROP	-12.119
OLATION	-12.1194
Different	-12.1196
maximiz	-12.1202
deflate	-12.1204
correlat	-12.1239
sodi	-12.1249
Condition	-12.1253
Earl	-12.1255
currenc	-12.127
initialise	-12.1283
BRACKET	-12.1283
BRANCH	-12.1283
CREDENTIAL	-12.1283
Ensemble	-12.1283
categorize	-12.1283
readcrumb	-12.1283
decimate	-12.1283
WILD	-12.1283
enlarge	-12.1283
Flux	-12.1283
belongs	-12.1283
oxygen	-12.1284
North	-12.1284
underscore	-12.1285
disagg	-12.1285
QUANT	-12.1288
RUD	-12.1289
hostgroup	-12.1296
implicit	-12.1341
idfobject	-12.1343
Descr	-12.137
Conflict	-12.138
heroku	-12.138
CLAUSE	-12.138
approximat	-12.138
POLY	-12.1382
prepend	-12.1383
odigo	-12.139
computation	-12.1398
synchroniz	-12.1427
arnme	-12.1438
Play	-12.1461
substitute	-12.1478
Legend	-12.1478
hazard	-12.1478
longitud	-12.1478
HAVE	-12.1478
Hydra	-12.1478
abstract	-12.1478
SLICE	-12.1478
trinsic	-12.1479
flake	-12.1481
couple	-12.1481
Stack	-12.1486
SGD	-12.1494
swig	-12.1497
hydro	-12.1519
odeint	-12.1527
erformance	-12.1533
PHI	-12.1561
Behavio	-12.1577
INFINIT	-12.1577
stoichiometr	-12.1577
elife	-12.1577
Duty	-12.1579
Interprete	-12.1579
cryst	-12.1579
SVG	-12.1579
Obj	-12.1587
Tempora	-12.1591
nicks	-12.1608
peptide	-12.1617
covariat	-12.1636
pubkey	-12.1638
photometr	-12.1676
FORWARD	-12.1677
TRIGGER	-12.1677
Tunnel	-12.1677
accelerat	-12.1677
▁	-13.6543
